[PAD]
[UNK]
[CLS]
[SEP]
[MASK]
!
"
#
$
%
&
'
(
)
*
+
,
-
.
/
0
1
2
3
4
5
6
7
8
9
:
;
=
?
[
]
_
a
b
c
d
e
f
g
h
i
j
k
l
m
n
o
p
q
r
s
t
u
v
w
x
y
z
£
°
ß
’
“
”
€
。
会
头
好
条
江
的
经
##i
##b
##e
##r
##a
##t
##u
##o
##d
##g
##n
##v
##c
##l
##h
##s
##w
##m
##p
##z
##f
##8
##4
##7
##9
##6
##k
##1
##5
##0
##y
##2
##q
##x
##3
##j
##°
##ß
##re
##to
##on
##er
##en
##ta
##ia
##ra
di
##ti
un
##os
##te
##he
##ol
##or
qu
##an
##ll
##es
in
##ro
per
che
la
##io
##ar
non
##in
il
si
de
##are
##ono
##no
##al
##ic
##om
##so
##ere
##do
se
##mo
##zi
##uo
ma
##cc
con
##ri
sono
##tto
an
cos
mi
##gl
ho
##le
##si
fa
com
##di
da
al
una
ques
##iu
##ma
##men
##lla
##vo
tu
pre
##one
ha
le
##ss
sta
ca
##ato
ne
##bb
##iamo
##ero
##che
mol
##tti
pos
##ene
##ci
su
##is
##mp
do
##ce
ci
bene
##gg
##li
##tra
##mi
pro
po
##co
te
molto
##ni
gra
##pp
##cu
questo
##sa
##da
##ve
pa
##uoi
##olo
qual
me
##tu
pia
##tta
no
##za
##ff
##vi
lo
cosa
##lo
##de
##tro
ti
par
piu
sa
quan
##lle
##mente
sp
##gno
##zione
##mb
##hi
pen
##era
##llo
##sp
av
##glio
va
##bi
comp
so
##ca
##ior
##oro
hai
del
##dere
##ente
##gli
##un
come
fare
be
abb
ri
##ter
##va
mio
and
ve
##se
bu
##sti
##enti
bi
##uto
##na
cosi
tro
ess
posso
##zie
##orre
##tre
##eri
sc
##la
##ale
essere
vi
grazie
##oni
solo
##ver
vo
ora
pri
##ue
vol
li
perche
##ito
dov
oh
lav
##po
vorre
ra
tutto
anche
##zz
puoi
mia
##ui
della
##ino
gior
##ese
##vv
##tte
que
##iare
##bbe
man
##ran
ba
##rare
cre
##gn
ch
cer
##orta
pren
##ari
##ina
quando
##ine
lavoro
for
##oll
##me
##ga
##mento
ven
sei
sia
qui
##ica
##man
##anno
mo
biso
##ici
prima
imp
vuoi
##vvero
##sc
##ne
davvero
fi
questa
sicu
##mpo
re
##cco
ok
ar
piace
ric
vorrei
nos
##tri
tra
##ten
abbiamo
stato
##sto
bisogno
all
sol
##ona
alla
app
gran
tempo
dovre
penso
gli
io
sto
pers
chi
##mm
nuo
dei
ta
##glia
##ando
##tr
nel
##sta
prob
##ppo
##go
andare
disp
tuo
voglio
##vore
favore
sicuro
fatto
##ggio
due
##nza
##ico
semb
cap
beh
pr
gu
##der
##ess
##ali
##oman
##tare
era
##ola
quin
car
##us
ris
##ento
signo
chia
##ena
acc
##bile
##esti
quindi
##esso
grande
quanto
sembra
tutti
##etta
##gni
##ole
##zioni
ad
##cia
am
puo
setti
##cora
delle
poss
settiman
doll
dollari
troppo
##osa
##pa
##zza
##cch
##anta
parte
proble
##ggi
casa
##ano
##ing
dove
##zia
uno
##ini
ancora
semp
piac
##zzo
dire
##tar
aiu
##zio
##ura
##tato
dispia
qualc
devo
prop
##um
guar
##ch
altro
tre
credo
tua
mie
doman
dispiace
trov
##rato
hanno
##gi
pe
giorno
quello
nella
allo
ecco
alle
senti
##00
##tura
lavo
diver
cin
##sse
##glie
azi
or
vedere
aff
giu
porta
certo
settimana
ave
##du
parl
alcu
##sso
##ccu
azien
##ori
##enza
gio
vos
sap
persone
mar
dell
##qu
us
auto
en
problema
##lmente
##oli
anni
poi
##ssi
##ante
##rio
##endo
loro
spe
signore
asp
mai
##ice
dopo
far
scu
vero
potre
suo
##ossi
sempre
##con
inf
col
piacere
sal
nuovo
##tere
na
qua
##ssa
pag
at
co
##esi
##el
fanta
buon
qualcosa
siamo
cor
stra
##menti
fin
oggi
volta
sare
##cato
prendere
##iente
vis
possiamo
##per
qualche
stai
stu
##lli
ser
conos
allora
ini
lib
fantasti
ogni
avere
sul
es
##nte
detto
pu
sai
##que
mang
##bo
##ven
##oso
meglio
azienda
fu
inter
##riv
sua
ste
sign
signor
##bili
miei
sara
pens
buona
##uti
gia
fantastico
cose
diff
ness
facc
forse
ass
via
##ire
giusto
pi
cal
fre
min
##icc
can
tor
camb
cia
ul
cir
chie
##ru
##ay
comprare
##gra
lasc
volte
nostro
##dare
men
to
ter
devi
succ
num
ver
##rai
##ordo
##arti
soldi
##icio
##cci
##iato
##isco
proprio
##omento
modo
prossi
uni
intere
##lu
##dio
##anti
aspetta
stanza
giorni
##ccup
ulti
dici
ciao
cui
anno
aver
##mma
questi
gen
##ge
circa
lei
cam
posto
esp
niente
importa
dal
fo
numero
momento
okay
##gna
esa
raga
##mmo
##ul
##essi
contr
##esta
##ffe
tipo
##orto
pensi
tele
abba
reg
##armi
##ba
molti
picc
##tale
uff
lun
domani
##cono
ban
solito
res
##zion
fil
carta
visto
sulla
##tt
##rlo
##feri
mille
##stanza
##pi
##pen
macch
altri
parti
##gione
##dito
##tamento
costa
##dre
##chi
preo
chiama
parlare
cu
nostra
appena
##ev
##tamente
specia
mese
avuto
impa
pagare
##mmi
quale
off
diffici
ind
cibo
noi
##ttere
on
##ck
alcuni
##ome
preno
trovare
##ze
miglio
stan
hmm
ufficio
ide
##ndo
##ggior
vado
biglie
sentito
matti
cerc
entra
stud
abbastanza
die
ingl
possi
minuti
ord
prov
pensa
buono
##rmi
ro
prezzo
##ssato
risp
vesti
##tin
citta
piacerebbe
film
difficile
vic
quali
bello
lavorare
inglese
mer
sarebbe
ero
male
avete
fine
pote
telef
consi
##ani
conto
deve
qualcu
dalla
##rante
macchina
##arlo
molte
ga
##tter
nessun
ed
idea
##ista
##qua
fino
avre
mon
accordo
##tente
##zo
torn
presto
incon
comple
conosc
controll
ai
tar
sce
abbia
infor
dis
sera
vole
fel
##etto
vu
##zzi
dovresti
vuole
pom
##sita
voi
arriv
fami
bamb
venire
10
nome
servi
gi
##bus
ragione
##onto
inc
##inare
legg
##ggiu
dovrebbe
qualcuno
natura
mal
sti
##ste
autobus
scuola
mangiare
foto
assic
##diamo
##tica
inv
##cchi
conta
ricev
ac
altra
signora
vostra
du
##tten
##dia
##fer
faci
spa
importante
lui
sapere
pes
gui
##uter
deci
##ttore
computer
univer
tardi
cla
##ha
##mare
##segn
successo
##edi
secon
##dra
##care
strada
##ario
costo
ce
##cendo
farlo
##vere
temo
mos
sento
##fica
cinese
informa
##gu
inizia
cercando
telefono
assicura
riu
##ttu
aiutar
##cio
##iche
altre
##cip
##ggia
migliore
##mer
spero
asc
##ttro
vita
cinque
##bilita
mattina
30
##ria
letto
##line
scor
nostri
capisco
stesso
quasi
vai
alcune
pomeri
##osito
sacco
lascia
pomeriggio
andiamo
quel
guarda
gente
##osi
degli
##il
stati
quanti
possono
fuori
inten
credito
capito
felice
ore
tuoi
##cca
ieri
##conom
ben
sca
##osse
##ord
piacci
piacciono
##anto
maggior
amici
##pri
##ane
quattro
comun
nego
au
##th
ries
##ranno
domanda
prossimo
econom
faccio
##erci
##uta
##nti
bra
##esto
tutta
##bbiamo
dobbiamo
piano
##tero
dice
##ang
stata
tras
preoccup
cio
##bito
scri
prendo
camera
naturalmente
otten
##denti
##sione
caffe
prof
vorresti
possibile
vicino
fer
##istra
bo
##sera
lon
##cchia
##ie
contin
pun
##estra
super
primo
usare
ten
guardare
sape
universita
cli
st
##ure
##pe
prodo
arri
potrebbe
##qui
##entro
##almente
anch
faro
##cita
##bilmente
famiglia
15
fun
dimenti
insi
amer
biglietto
##anza
queste
colle
facile
##eme
##rti
dipen
stasera
##bbl
000
cena
person
pubbl
esperi
controllare
##gia
##sia
appar
proba
vostro
mus
##ow
ultima
20
##uno
##pra
##meno
poter
appun
affi
ele
nell
paese
##ccupa
occup
##mato
ag
##eni
diven
##osso
##ccia
comprato
vendi
anda
tutte
med
spesso
amico
viaggio
mostra
##bbero
sopra
aiuto
servizio
bar
volo
##ed
##dato
quella
sh
##ur
##ke
contra
potete
sin
##pre
##tel
insegn
insieme
##oss
senza
##col
##ian
andato
esperienza
jo
indi
preso
##gliere
ricor
dovrei
persona
lungo
probabilmente
dare
##gior
seg
facendo
##erai
prossima
cuc
fran
hotel
fortu
cambiare
otti
preferi
scriv
portare
alto
pronto
attra
classe
##vono
##arci
condi
atti
##for
dato
meno
incontra
dor
fon
stre
##tivo
inol
fammi
velo
risto
##giorno
dep
capo
scar
prin
ecc
##eta
##fic
signi
bella
vedo
divertente
corre
go
##iamente
##alo
fai
##ttera
hmmmm
informazioni
appuntamento
fosse
stare
nei
modu
eserci
bambini
appartamento
##ttamente
racc
disponi
usci
vestiti
conoscer
musica
inoltre
##ddo
##tati
tav
dieci
riesco
abi
fra
##tera
##tevi
vediamo
sch
##itori
forma
imparare
princip
12
##ua
##tano
notte
siano
wow
##dente
##temi
posi
progra
##nita
##iori
atten
pensavo
ascol
op
sba
##ollo
settimane
nessuno
genitori
poli
##ramente
dall
prender
nuova
scusa
richi
##tru
mondo
apri
negli
##issi
dovremmo
##gliato
acqua
secondo
he
ru
##elli
##ger
##iale
prepa
lettera
trovato
avevo
pensato
speciali
online
prefer
##ppa
giorn
problemi
sempl
mercato
dena
sen
nec
pass
buongiorno
totale
denaro
osp
por
uh
##rno
##rati
grandi
banca
prodotti
aper
suoi
##atti
##ghi
##endere
##tazione
commer
tratta
diversi
ragazza
nu
##vano
paga
spor
chiamo
rec
qualcos
modulo
festa
tanto
dip
invi
madre
##ggiare
lavorato
libro
riuni
significa
##ron
passa
passato
davverota
pech
stanno
necess
cina
sco
##isti
docu
riman
moglie
arti
erano
cambia
mesi
##sen
##ccato
camp
vac
corso
speciale
colo
opp
ovv
##pon
##pol
##ziona
presti
mettere
viene
##verno
fir
finito
interess
##zionale
##ggiun
trasferi
ristorante
##atto
##dero
##lia
ann
sotto
##cchio
proposito
affari
offer
bor
fri
pio
vin
##iti
##bato
##est
conc
dovuto
chiedere
provare
iniziato
comunque
veloce
effe
molta
subito
paura
veder
giocare
tran
accetta
durante
negozio
amo
##st
sugg
padre
taglia
tavolo
bere
##ttura
ins
perso
anti
compa
ottenere
pechino
##mon
##ong
##nata
semplice
50
pran
##ede
##vis
visi
ragazzo
##im
##colo
##remo
laure
sette
rapp
respon
preoccupa
vestito
abitu
ovviamente
responsa
fru
##etti
##ziare
##erdi
##ard
compra
##vamo
andando
venerdi
programma
occhia
##uan
##son
##eremo
##net
libero
chiamato
prenotare
occupato
squa
uti
##ddi
##dete
spos
trova
volevo
##gio
capelli
centro
dol
ja
ling
uom
##arsi
##iuto
prezzi
caso
avanti
compre
adesso
org
scel
dormi
prestito
##sci
##fo
##eno
##ribile
basta
prendi
chiam
interessato
biglietti
assicurazione
americ
affitto
scrivere
pal
testa
##usa
##via
dirmi
##ana
sicuramente
piedi
indoss
qualita
organi
lu
perf
##cche
mentre
compleanno
stiamo
esta
##osto
##inato
nelle
noti
tornare
guida
uscire
bru
er
is
imma
tv
##tiva
conf
migl
tue
possa
paio
##zze
##ssione
internet
pensare
fretta
clienti
attraver
scher
##gare
##erv
devono
dai
puli
contratto
esercizio
hey
colore
dom
imb
val
##ute
##dono
matri
vivere
vieni
inizio
stipen
deciso
costoso
borsa
effetti
00
ada
don
##porto
##osta
piani
piccolo
commercia
100
otto
zu
##rsi
##vista
dio
##and
siste
metro
##vita
parla
spia
bell
mano
chiesto
chiamare
vista
caldo
freddo
entramb
ordine
posizione
amb
ese
ol
##dendo
##nato
##ork
prega
faccia
piccola
necessario
##tana
##ortu
ang
almeno
new
saro
baga
guard
scorsa
dimenticato
personale
pranzo
estate
stipendio
smi
##gato
##tore
##arm
conten
##rie
cara
produ
qualsia
soci
##uire
giornata
spedi
libri
risparm
qualsiasi
ren
##hn
posti
rila
##zzare
ricordo
treno
potresti
facciamo
aspettare
intenzione
immag
ah
##od
##vole
prego
soddi
##taria
salve
conosco
leggere
ricevuto
offerta
smith
soddis
##gono
##ose
perme
diverti
infatti
scegliere
economico
john
scarpe
opportu
soddisf
aere
fini
genti
svi
buoni
opportunita
sor
##torno
stavo
part
riti
rima
nuovi
capa
sentire
vostri
marito
possibilita
occhiata
edi
perdere
cons
gioco
iniziare
term
genere
ottimo
disponibile
riunione
asse
##erlo
laggiu
mamma
popol
tipi
forte
bisogna
figli
aria
ultimi
esattamente
##ttutto
lontano
soprattutto
sinistra
cucina
bian
darmi
gesti
vera
##den
##messo
##sioni
sui
saranno
##rando
##scri
aveva
##graf
terribile
consiglio
interessante
cine
cola
hu
mu
sci
##poli
##llare
sie
stazione
base
real
affatto
pieno
studenti
fortuna
squadra
desi
ex
tom
##et
##redi
mater
alta
caro
##isce
##ttare
##segna
diverse
verso
prenotazione
inclu
scorso
insegnante
metropoli
pan
pollo
yuan
##tello
rip
ritar
sarei
gener
discu
giro
vendita
documenti
matrimon
svilu
realta
sos
##dera
ing
sull
prova
ripa
scato
bravo
dura
vanno
we
york
##coli
##tico
parche
sabato
bev
##gnato
preferisco
metropolitana
cri
fanno
luo
line
sf
vino
##esa
##iore
paesi
##gliono
vogliono
bagno
lavora
minuto
onesti
volete
pesce
medic
deposito
nulla
capacita
fe
##rci
##vol
##mes
##ton
##telli
##ller
fam
bel
forni
venuto
aspetto
potrei
attu
interessa
stanco
aprire
societa
200
dan
sme
dalle
##mpio
spetta
risol
cinesi
signorina
uniti
arriva
raccoman
sbagliato
vacanza
ehi
mor
##ada
##fici
##ficio
##rezza
##arto
anim
camm
##ppe
carne
mary
particol
imparato
arrivare
sapevo
preferito
attenzione
bellissi
usa
##sca
##min
##menta
##ppia
buone
##zzato
figlio
calcio
lasciare
ultimo
avrei
preoccuparti
ferma
contento
cinema
fossi
rin
sve
tri
##gente
##ala
##erenza
presen
nem
grado
loc
impre
pelle
peccato
giov
salute
dipende
gentile
ecci
mes
##gere
##icato
##isci
dottore
##viso
##mbre
aiutare
entro
serio
stessa
bambino
vendite
sport
scherz
19
rosso
detta
dello
contro
prem
pochi
meta
compil
chiu
risul
portato
giocato
chieder
dietro
ricevuta
sapete
huh
linea
##sh
unico
quest
##stica
##lazioni
interna
regalo
scritto
punto
funziona
conoscerti
ritardo
matrimonio
18
occhi
roman
##hia
##enzia
##anze
deli
##tua
storia
potremmo
rimanere
suggeri
frutta
uomo
indossare
esempio
nemmeno
torta
vor
##rre
##enze
##orso
##esse
alb
sue
metter
parco
vedi
vecchio
sole
##artimento
mattino
studiare
continu
pubblici
senso
laurea
fis
lista
mare
mmm
uo
##rli
##gnorai
sore
sconto
marte
terra
pensate
inviare
dipendenti
principale
dipartimento
25
resti
lezione
##veder
time
mana
cresc
nostre
mail
estero
prenotato
america
ricorda
responsabile
sorpre
bro
blo
dentro
nerv
##ttr
##duto
##denza
##mos
##iano
##telo
##icare
catti
proge
temp
domande
##dure
lunedi
completamente
gira
riusci
sho
preoccupatevi
zuppa
entrambi
veramente
colazione
cen
nor
##este
check
##arli
papa
##tui
manten
orolo
strani
finan
cance
partita
ordinare
segre
utili
angolo
edificio
siete
uova
aggiun
bre
identi
venti
##ry
inverno
##icol
parole
andro
##pore
vorremmo
##gne
##metto
impe
resto
dieta
stile
seconda
aiutarti
tuttavia
indiri
lingua
luogo
sorella
esi
ov
##be
##rica
##male
turi
piatti
ved
##gnia
nuove
parlato
corpo
botti
continua
diventa
conoscerla
annun
tranqui
compagnia
palestra
migliori
attraverso
delizi
orologio
##rra
##gliamo
como
pressione
##pping
palla
##ffico
rif
lavori
quelli
traffico
piaciuto
##tario
natale
corri
giapp
verdure
##ficato
animali
shopping
indirizzo
dia
pis
##dale
##vanti
##tante
##ssare
poco
##ffici
dovrai
basso
##melo
figlia
arra
tradi
capi
add
mangiato
pensando
succed
esame
##ession
chiamata
entrare
formazione
passare
vinto
rapporto
web
manager
14
aero
fiori
sing
##ou
dir
dite
diri
##tivi
lava
conven
dammi
presta
mezzo
##tuto
limi
tai
##zzazione
colori
conosci
differenza
viaggiare
torna
partire
londra
medico
jack
scelta
sistema
messa
nervoso
identita
16
agli
cente
tes
##cn
##ermi
dicendo
##ttosto
suona
tecn
##ture
piatto
piuttosto
avro
scom
##mano
trasp
pron
carte
##ustra
accanto
aiuta
collo
intervista
merce
contanti
aiutarmi
ultimamente
elettr
giornale
aperto
visitare
perfetto
imba
oltre
centesi
um
uso
##ciare
##armente
##dita
data
avessi
faremo
visita
voluto
dovro
raggiun
ricer
appre
##alita
fumato
succede
esatto
incredi
contatto
guidare
stia
funzion
fortunato
governo
ambiente
scherzando
martedi
centesimi
ster
zona
##nis
##vare
dicono
inci
consegna
comin
lezioni
posta
credere
tazza
partecip
lasciato
registra
acqu
##ordin
ciocc
fondo
finanzia
11
des
dar
gru
odio
pra
test
ur
##dici
##olu
lato
sito
##signorai
fate
orario
rep
direttore
aziende
ragazze
garan
monta
intendi
##edale
rimasto
popolare
pane
##tiamo
##uro
##vera
##cente
##erto
consegn
miglia
davanti
metti
vada
compe
compiti
vogliamo
sicurezza
appro
dovrebbero
carto
ener
colp
sala
pagato
straordin
finche
provato
mala
peso
quantita
profession
cliente
franc
deposi
commerciale
assi
bis
blu
gre
lin
vali
##elo
##tenti
##ghe
##tive
##ossa
##eso
situa
fara
causa
sud
passe
quante
rimb
birra
allen
dovete
pul
assolu
camere
cercare
tornato
aumento
preoccupato
ospedale
antici
dormire
spedizione
compilare
pratica
assolutamente
500
gr
mente
##riamo
##gh
##nta
##wn
##xi
##onare
##olato
##ccio
##rita
mis
##mpa
belle
raff
moda
tasso
capire
studio
##icchi
indus
attimo
ascolta
prepara
giornali
guardando
aereo
euro
ori
##cy
dirlo
##tici
##teca
quo
latte
##icia
##more
##gliare
datemi
##ttina
##vedi
pacche
nove
sposa
soggior
##unque
scon
certi
cerca
forza
soli
adoro
mangia
offri
rispon
##ting
invia
##guar
aiutarla
attivita
fratello
passaporto
notizie
generale
spettacolo
arrabb
24
denti
##ezione
##rne
##tion
congra
daro
mezz
##tulazioni
prendero
mobili
taxi
##trice
serve
libre
canz
esami
consider
arrivato
economia
ricordi
firmare
semplicemente
bagagli
ritirare
medicina
conveniente
tesoro
francese
congratulazioni
cura
fron
ge
iscri
##letta
farai
ali
para
compl
rice
corsi
frequ
terzo
recente
succedendo
ricerca
situazione
anticipo
amm
cento
messo
vari
##rei
div
intelli
perio
##arla
sulle
potuto
media
##turo
##devo
bus
vivo
cercato
##tatore
guardato
diverso
banc
##ttiamo
rotto
bob
vederlo
risparmiare
bevan
attuale
pubblicita
straordinari
soggiorno
destra
oli
pla
##ric
##len
##ker
disa
intorno
##rore
##maco
campo
##sazione
spie
vecchia
bas
##media
tassa
##olati
risc
##umare
finestra
pur
mangio
candi
esau
studiato
lasciami
colleghi
andata
andati
articoli
spiaggia
immagino
raffre
21
coll
canta
son
##rvi
##nze
##pia
##resso
##enica
inve
seder
segu
face
alte
##matica
cas
andarci
certamente
vengo
rela
arg
chiami
parlando
aziendale
piccante
avrebbe
incontro
##hai
poterlo
seguire
incontrato
corrente
sugger
adatto
donne
rilass
assegno
sviluppo
risultati
progetto
aeroporto
sterline
fronte
40
edu
fumare
isp
sali
##cere
##mor
perc
confer
alz
gradi
pari
spese
sopp
riguar
##erie
##erita
ballare
impro
tasse
giovedi
ester
futuro
interno
pensero
cambio
controllo
investi
spazio
college
street
disponibili
brutto
dettagli
vorra
bottiglia
300
eh
##bre
##etro
##dino
##cina
##ster
##tiche
##arne
sema
mette
scendere
quell
##gazz
vengono
arre
guada
chiave
peter
##quio
##perto
stupi
camicia
lunga
noioso
class
aumen
prodotto
pubblico
condizioni
ascoltare
##viste
utile
gestione
design
scatola
parcheggio
fermata
colloquio
fumatori
incidente
semaf
17
bicchi
fl
jane
lic
the
tari
##ell
##at
##tola
##onato
conti
davi
prog
##ppi
passo
memb
##tuire
notato
sapore
compi
scio
quei
file
arte
piacera
speci
calda
verde
importanti
##ditore
rispetto
nessuna
avremo
servizi
indietro
cucinare
polizia
invitato
campi
notizia
errore
domenica
produzione
permetter
##mestre
smettere
internazionale
incredibile
periodo
13
austra
lan
mini
pol
sb
tanti
##rla
##ty
##eranno
dimmi
conver
##rito
mili
fabb
alti
state
##ismo
piaccia
soff
ritorno
bill
voti
priva
manzo
mode
richia
sembrano
pezzo
saperlo
potrebbero
interesse
altrimenti
felici
benven
negozi
ottenuto
pagamento
velocemente
bagaglio
giovane
##vederci
##fficiente
trasporto
biste
grosso
australia
eta
feste
gel
nero
porto
sang
vale
valo
##rin
##ad
##uso
##dine
##gro
##ny
##vato
##wan
##ert
##tile
inna
##riera
##mattina
stamattina
##atore
##ggiato
##ologia
vive
##tria
##chio
peggio
usarlo
giar
esporta
##essione
regole
cur
##tteria
mostrare
shang
fonda
prenderlo
vacanze
termini
bellissimo
mantenere
taiwan
##signoraione
valore
mic
nato
sche
wang
##bl
##sco
##olli
##aria
##iness
caus
succo
tea
metto
riso
##laro
voce
lavare
stomaco
accom
direttamente
pezzi
finalmente
restare
##zionali
specialmente
entrate
studente
ordin
disco
##hat
punti
##quisi
ospiti
dollaro
domesti
valuta
particolarmente
suggerimento
desc
pacchetto
business
olimp
invece
shanghai
ama
hi
stru
tante
uman
##ea
##edere
##umo
##dy
##gico
##cano
##fico
##tate
diro
##olla
##alda
pausa
##ffa
avrai
trovo
##vern
quelle
amiche
propri
##ssimo
steven
fresca
avermi
piccoli
merc
gamb
fotogra
duro
universi
asciu
arrivederci
dimenticare
##ddore
amore
laureato
istru
miglior
rende
camminare
locale
breve
vedrai
delizioso
diritto
cioccolato
gruppo
assis
raffreddore
david
are
acco
ju
muo
sano
th
wi
##rone
##ast
##venti
##ft
##resen
##tata
##talmente
dimen
dimos
inca
intero
##omi
##erete
mate
costi
costr
##sile
fatta
fame
##bbre
dover
proc
##damente
patente
spi
spendere
bei
ridu
veni
vendere
fila
##trib
adde
giochi
vostre
chiedi
aspettando
macchine
migliorare
malato
decidere
tennis
personali
principalmente
opera
porti
rappresen
donna
ottobre
discutere
sfi
##alata
brown
tradizionale
certificato
riguarda
semaforo
bistecca
bri
danno
evi
ni
occa
rum
vuo
##nic
##lin
##rebbe
##razione
inge
magazz
sus
cielo
grave
patati
notti
spen
andra
vecchi
bibl
schi
##labo
rapi
prendiamo
##tenza
carriera
##umin
affare
farmi
conosce
cameri
decisione
##ggiata
arrivo
richiesta
uomini
caratter
termine
extra
sosti
scatole
particolare
partecipare
colpito
bicchiere
innamo
ingegn
biblio
dri
jen
mera
occi
rom
ring
sfor
what
##cin
##scu
##scita
##fa
##onica
##tali
unica
permesso
##icolo
set
##mozione
maiale
fatti
lee
star
nello
ted
avv
##bietti
comporta
##cam
riviste
voglia
radio
ricon
taglio
gusto
##oledi
gioca
scusi
influ
colpa
controllato
girare
incro
ferm
agente
diventato
ricordare
stress
##ficare
preparare
aperta
scoperto
responsabilita
scelto
dormito
americani
raccomanda
continuare
corrido
giappon
piscina
messaggio
energia
fabbrica
giardino
mercoledi
meravi
22
bon
idra
obietti
pare
sente
sani
tru
wa
##ut
##gori
##voli
##liare
##zina
dico
indo
inse
nonna
siedi
presi
##bby
benefici
##ggere
grati
gratui
parlo
pena
primi
modi
storie
sembrava
affron
marke
usato
strano
ragazzi
regali
offre
studia
ordinato
provero
provarlo
avresti
facilmente
condivi
ospi
cambiamento
accettare
insalata
commerciali
finire
famoso
segretaria
turisti
reparto
suggerisco
susan
biblioteca
ringra
indov
80
90
im
meri
mul
##val
##ware
##enso
##osti
segn
settore
maggio
costru
mike
prescri
stagione
##isa
poche
##vello
##troppo
compro
viso
vide
credi
venditore
motivo
dovremo
lavorati
lavorando
portafo
salsa
intervis
sarai
assum
##ttero
chiamate
stand
benzina
##urger
segui
correre
##istiche
dolce
bianco
include
locali
impressi
depositare
industria
purtroppo
educa
dimostra
matematica
patatine
occiden
marketing
cuo
emo
gri
mone
ogn
occupa
panta
ria
rose
##rono
##rle
##ly
##lan
##zh
##enda
##rata
digi
intera
magli
##gle
##levare
comu
previ
lea
prome
metri
mezza
##tur
##visi
rivista
##ranti
moder
ricord
sola
appl
chim
##chia
##chero
navi
fred
regol
##pie
##issimo
rub
annu
piove
vederti
accettato
##grafia
materiale
risolvere
rinno
eccitante
tranquillo
singola
fotografica
rumor
incrocio
pantal
60
ka
ogg
rosse
ton
##uzione
##gano
##centi
##entra
simi
##erei
##erenze
sezione
semestre
master
hobby
postale
prote
##ppare
##ttato
compri
ripre
##verlo
mani
primavera
arr
trave
##triamo
##derlo
direzione
enor
sarebbero
studi
giacca
calma
menu
tour
averlo
piccole
conoscere
leggero
scamb
comune
punte
supermer
superiore
riunioni
scopri
documento
articolo
pioggia
chiamero
entrambe
soddisfatto
consul
popolari
restituire
cattivo
stranieri
scommetto
raggiungere
bevande
##moria
parigi
bonus
video
azioni
bic
cul
desti
esti
hong
ita
pic
prati
tal
##gante
##vero
##tidia
quarto
intra
##arvi
debb
sepa
conn
stava
case
suonare
promozione
grasso
pade
pasto
socia
esserci
manu
prendendo
impie
archi
allena
stor
tappe
eravamo
##zzatura
##tarmi
mark
indossa
roba
potevo
consiglia
tornera
voleva
inviato
contabilita
assicurati
diventare
campa
inseri
sposato
organizzare
pulire
adatta
giovani
chiederle
ovunque
annuncio
urgente
garanzia
passeggiata
quotidia
divor
accompa
assistente
rapidamente
meravigli
##ensore
standard
supermercato
bicic
italia
atte
bol
cra
esso
id
san
vanta
yo
##ir
##rus
##dini
##dge
##nno
##yl
##eria
lar
sigare
comsignoraione
##mail
##llato
legno
pop
mele
##cati
##unt
rie
vedre
vedete
##vers
mand
venga
fid
red
chil
nuoto
nuotare
chiaro
trovarlo
portatile
marca
coca
corto
escu
regola
distur
pesante
profumo
concentra
settembre
soddisfa
diventando
annunci
acquis
consegnare
riscalda
classica
licenzia
tariffa
dimensioni
processo
avvic
siediti
prescrizione
leader
padella
email
it
kong
nord
you
zo
##ello
##op
##dura
##genza
##stra
##mine
##zato
##fre
##fero
quarti
##anche
##llul
##inistra
massimo
##llaggio
pres
prece
lettere
##ssuto
neanche
##istica
cibi
##cob
pazi
tito
soft
##und
abbi
viv
liti
bassa
crea
crema
cha
prendete
fidu
risor
##tarti
affa
giusta
##quanta
coin
inizi
stessi
viaggi
piena
cane
##lub
##ttia
tornero
completo
cellul
specializzazione
frigori
comprarne
americano
pala
perfetta
isolati
risparmio
aerea
materia
febbre
##mentari
centra
impegna
rifiu
professionale
europa
arrabbiato
canzone
amministra
compila
sangue
olimpia
proprieta
ridurre
raccomandazione
corridoio
immedia
portafoglio
enorme
campagna
bicicletta
riscaldamento
23
aggior
club
dra
dess
darti
drin
fiu
foss
jim
len
oro
rendere
verita
##bina
##as
##ok
##ky
##50
##end
##enue
##tazioni
##rarlo
dica
##tito
##osc
inqu
inuti
##inale
##ttori
##lette
neve
##iscono
prom
pasti
pacco
sper
avenue
scen
vissuto
livello
mandare
##gnare
moto
reli
chiesa
##ciato
##zzati
##ingere
proprie
naso
coper
coppia
copia
copie
difficol
cantare
bank
respi
idee
scegli
##tture
ascensore
autu
riesci
tenere
##ket
politica
commercio
campus
interessanti
tranne
comprero
ripos
triste
normale
aggiungere
pronti
orig
offrire
intelligente
plastica
casu
progetta
account
giapponese
gratis
condividere
pantaloni
oggetti
connessione
crava
riemp
frigorifero
drink
fossero
difficolta
cl
esc
je
otta
poll
rosa
som
testo
##les
##mar
##fi
##jing
##ressi
##erta
##tando
##rale
##razz
dif
dichia
##ania
deb
cong
fasti
leg
stamp
dopp
doppia
##gging
pad
nottu
tieni
parola
avan
sou
vivi
manca
mangi
formale
##icazione
arma
tagliare
carino
acce
aiuti
diversa
##glielo
giugno
uscita
quad
pagh
attre
assun
chiedete
chiedevo
totalmente
numeri
verdura
food
##zionato
inden
risposta
vicini
potessi
abbiano
famiglie
familia
##cchie
informazione
scadenza
economica
profon
superare
##forte
abituato
compren
organizz
zucch
angel
ingresso
albero
sorpreso
bloccato
norm
comodo
giappone
complicato
milioni
##quisiti
magazzino
caratteristiche
studiando
ognuno
traveller
##versario
chilome
autunno
aran
aggiu
centi
gol
mess
ono
out
sanno
##tori
##erti
##ans
insta
insegna
sede
conge
fax
premi
hamb
stabili
sullo
doccia
##tuito
parli
sapp
faresti
riveder
##vamente
vivono
volev
##ollato
##gati
guer
##ington
cinquanta
##duti
scuole
fines
pie
pizza
cani
ciascu
##ulum
costano
gara
gatti
finora
legge
##gua
agenzia
scrivania
ristoranti
principali
opini
aprile
##zionata
trasferire
fritte
concerto
divertiti
panino
sviluppare
eccitato
tempera
impegnato
limite
misura
libretto
frequen
varieta
##riculum
basket
seguito
altezza
stupido
flessi
minimo
benvenuto
gelato
curriculum
amichevole
evitare
cultura
software
immediatamente
dessert
indennita
zucchero
hamburger
volevano
36
32
ado
abilita
cru
den
emer
elabo
gin
glo
ghia
har
morto
occhio
rmb
tess
win
whi
zh
##ak
##dice
##ciamo
##moni
##erva
##entale
divi
distanza
##esco
inte
pero
nonno
sedi
ana
anali
fac
fattura
dati
turno
prelevare
##bbia
suono
dozz
avvo
andremo
mandato
cerchero
forti
##gliamento
disposto
sembri
sentivo
nazionale
core
saremo
mensile
unita
aspettavo
gatto
spaven
spazzatura
mostre
guardate
150
eletto
show
incontrare
eccell
raccol
frag
120
richiedere
portero
invito
lingue
luci
olio
morbi
tempi
ovest
montagna
montagne
valigia
rimborso
bellezza
inviarlo
scheda
domestici
descri
university
costruire
##cinque
intervistatore
occidentale
simile
tappeto
reddito
quartiere
abbigliamento
risorse
debole
sappiamo
26
abito
cv
danza
los
lice
nan
umore
wh
zio
##vin
##sare
##ph
diso
##oste
##inanze
secco
tur
casse
sufficiente
##dati
##tutto
##tusia
##vimento
rid
##terra
andrebbe
trovi
##vermi
rap
importo
##tenze
sembrare
acca
##tarlo
sentirlo
alcun
entusia
aspe
infer
salu
corsa
finale
cambi
chiedero
verra
verro
averla
questione
offriamo
entrato
vicinanze
considera
serata
arrivando
naturale
##hael
scorte
scaff
scrittura
dimentica
affittare
jogging
francob
incontrarci
fondi
abiti
schia
programmi
prenderti
dipin
cambiarlo
compagni
comprarlo
luglio
brutta
##andese
spiacente
duramente
attualmente
bellissima
sveglio
premio
riuscito
esig
funzionare
rispondere
libreria
sopporta
sbri
conversazione
modello
michael
incassare
spirito
presidente
affrontare
##zhou
punteggio
picnic
allenamento
olimpiadi
angeles
white
27
45
azione
ber
dolo
equi
elen
fan
gola
lus
lumin
pin
tha
ucc
ucci
##bu
##by
##rori
##nia
##vento
##vviso
disc
##orti
##orge
incora
invern
perdita
##arle
siti
deter
costu
fall
##mene
lettura
sup
sodo
vede
scia
##verti
back
crescita
##gnolo
forn
vento
retro
requisiti
piaceva
piacevole
##onamento
persino
##stato
chiavi
##ziali
treni
##gioni
maria
marcia
marrone
farti
saldo
fumo
chiedendo
televisi
abbassare
partite
rotta
qualcun
incontriamo
conoscenze
pomod
arrivarci
fotograf
dubb
lasciate
scacchi
superato
agosto
##colare
daremo
ottima
uscito
attento
specialita
concorre
frutti
squadre
guardarlo
gestire
muro
muse
fornire
morte
sveglia
presentazione
giocatore
romanzi
restitui
segreto
malattia
canzoni
george
argomento
ispezione
salire
conferma
aumentare
membri
fondamenta
schiena
jenny
idraul
lavorativa
comuni
destina
cellulare
promosso
cravatta
familiarita
rivederti
ciascuno
temperatura
liceo
thail
amano
feri
gon
of
serie
usi
wil
yea
##itto
##tn
##smo
##zer
##fiche
##rera
##ersi
dirti
##lly
pericol
lati
debito
sele
masc
date
leggi
##istro
dotto
##gge
poiche
grassi
patate
qualunque
tira
avviso
##bie
compli
sogni
farei
riferi
vege
troppi
dovra
ballo
battu
china
venduto
##icazioni
relazioni
##tendo
##trino
possano
##ziale
diretto
aiutera
trenta
##gie
parlarne
anniversario
cora
codice
liberi
##venir
canale
cambiato
ultime
controlla
band
##evole
impazzi
stanze
rock
telefonica
avremmo
facili
cele
mostri
andava
barca
condizionata
prendermi
preparato
record
firmato
trasferimento
abitudine
pulito
carattere
bianca
bianchi
riparare
medicine
smetti
arrivati
svegliato
premur
ricordati
cancellare
addor
finanziario
green
rimbor
puls
esausto
collana
relazione
improvv
esterno
richiam
umane
asciuga
innamorato
dritto
obiettivi
sanitaria
trucco
ringrazia
cuore
maglione
previsioni
rumoroso
intratten
debba
vantaggi
##dget
fiducia
esclu
souvenir
congedo
avvocato
scaffale
yeah
bla
mori
nole
pon
pesi
##am
##derai
##nto
##ndi
##com
##zare
##ka
##anda
ina
lago
lasci
##ald
##icano
##omin
seta
semin
costera
stampa
prometto
pace
nota
spre
spera
speso
deluso
##ung
bevo
rive
##teriore
budget
troppe
virus
mancia
baller
batteria
chan
prende
##inamento
##mettere
vendono
##scia
##ney
rich
ricco
acci
addio
guardo
orribile
parlano
farma
farvi
quaran
saresti
fantastici
est
sarah
torno
averne
cug
offrono
road
##aniel
spalle
aiutarvi
##ggiamento
lasciatemi
comunicazione
sapevi
collega
pubblica
elegante
##ccupazione
barbie
insegnanti
preferirei
velocita
formaggio
richiede
giornal
firm
firma
inser
americana
organizza
luce
errori
imbar
valzer
spedire
bevuto
danne
risultato
vorranno
fisico
acquisti
competi
sposati
bancario
faceva
sopporto
##ground
istruzione
area
occasione
vuoto
cameriere
indovinare
fredda
inserire
fiume
lentamente
centina
anatra
disoccupazione
francobolli
esigenze
vegetaria
celeb
35
atta
assa
asia
bal
cro
cali
eff
eventi
immo
jon
ping
ub
umi
##imento
##bale
##etito
##rsione
##ood
##genti
##gica
##nare
##nice
##volo
##cento
##fera
##erne
##tamenti
unito
labo
##argli
decora
##alato
##dotto
conce
consa
convin
anzia
falli
alice
##iuta
##mai
##ment
haha
cavo
cava
supp
cima
medi
memoria
##trover
spesa
avesse
##camente
##unciare
andar
essermi
racco
##onata
appetito
chili
##essero
##olazione
rischio
chiaramente
accen
##essore
amica
direi
trovarmi
##ratore
##ratorio
sentirti
ormai
affollato
avevano
avevamo
autostra
scuro
saluta
visa
fur
giallo
pill
chiede
terza
lunghi
##zionare
chiamami
migliora
distru
distrib
arrivera
ragionevole
stili
fotoco
##rian
orecchie
benissimo
negozia
braccia
diceva
profess
professore
personalita
agio
indipen
francia
incontrati
scusate
rumore
preferisci
nutri
pagate
dipl
trasferito
piov
occhiali
dolci
##tivamente
divertimento
conserv
desider
parcheggiare
risolto
impressione
giocatori
fisso
crescere
progetti
singolo
garanti
approp
cartone
disagio
candidato
cantante
sonno
percorso
privata
ingegnere
##isamente
talento
sigarette
assunto
opinione
inferiore
background
dubbio
impazzire
improvvisamente
califor
jones
consap
autostrada
28
55
efficiente
fal
fuo
mura
pcc
testi
tosse
##ume
##usc
##dano
##ner
##vra
##cro
##sche
##onta
##ander
perman
segno
mappa
fast
commedia
combina
dagli
legato
cappe
nev
nega
civi
##mila
proi
provi
pago
##tuale
piazza
timi
##bita
compito
soda
sogno
ripe
andrai
bilan
##nastica
troppa
privato
manda
manch
##ranea
bassi
creare
cerco
##arie
##inate
venuti
##mando
fitn
sicuri
regno
aller
appare
dovrete
##zzata
##zzate
dovevo
alloggio
##duta
usando
dopod
paghi
strate
libera
estera
##rivere
stelle
pensano
fresco
ulter
togli
aspettato
aspettate
averti
espresso
offro
difficili
onesta
onesto
rob
rov
avrete
monica
leggendo
contabile
spagnolo
secondi
##osizione
augu
trasfor
continui
punta
insegnato
preferita
corretto
opzioni
rubato
preferisce
passano
passaggio
oppure
trasferiti
borse
compagno
organizzazione
lucy
pianificare
ambi
rilassa
materie
famosa
fermate
chiude
chiederti
alberi
fisica
sorpren
sorpresa
darvi
competenze
considerare
alimentari
membro
esportazione
causato
teatro
gambe
romp
sfortu
tedesco
influenza
chimica
regolarmente
sociali
bolletta
escursione
licenziato
zoo
titolo
affasc
speriamo
proprietario
riposare
originale
ginnastica
sedile
dozzina
fragole
considerazione
fondamentalmente
complimento
quaranta
effica
laboratorio
california
permanente
cappello
fitness
as
dro
diamo
fr
hen
hel
ombre
rossa
shi
squ
sfo
var
##don
##dol
##gando
##veri
##sato
##sce
##stro
##mol
##mone
##mori
##par
##tor
##rano
dira
##tina
##ort
##llone
lamp
##ins
sedere
seduto
matto
##cce
##ttoli
ani
antica
##ley
##sion
##sibile
faranno
dara
##matico
##llata
staro
##bbra
##isca
##lie
procu
potro
povero
##samente
##day
pazzo
passi
meto
medio
mettiamo
memori
##visione
tim
tiene
sappia
spun
socc
rile
##teranno
##vata
bur
scola
mancare
forno
vende
impos
appa
dovreste
##dermi
##omani
chiacchi
amy
ammi
aiutato
##duzione
usano
aspi
atmos
strade
saremmo
servono
fantastica
esten
##venire
stesse
toast
successi
questioni
esperto
##back
banche
reso
resis
filiale
partito
ordini
merci
gas
gamma
mondia
conoscenza
fotocam
ricevere
guidato
##ther
brava
dicembre
##angzhou
trasfer
scrivo
bocca
appunti
occupero
mostrato
contrario
ottiene
stretto
esercizi
fratelli
attentamente
prenderne
richiesto
specializzato
semplici
recla
offerte
##stia
##visto
james
chiamarti
confron
confuso
pulizia
rilassato
sosten
cammina
trib
##shington
internazionali
alber
riuscivo
utilizzare
bottiglie
tranquilla
mezzogiorno
imbarazz
cartoline
##mpagne
bevanda
improvviso
sciocco
benvenuti
team
rappresentante
nipo
washington
insetti
multa
dimostrare
calmati
scoprire
impiegato
vedrete
disturb
champagne
palazzo
centrale
inutile
casual
doppio
armadio
chilometri
spaventato
elettorale
morbido
accade
idraulico
masch
premuroso
addormen
pulsante
centinaia
immobi
ubria
##troverso
diplom
dopodomani
ab
cr
daniel
eri
emi
etiche
festi
ger
imm
ken
obb
otter
rica
sten
str
stere
sosta
up
vini
##riato
##ai
##use
##dd
##vvi
##cera
##ling
##shi
##ms
##minare
##fia
##fini
##frica
##67
##onda
##tal
##talo
##rate
##ant
##esu
inven
chequ
mati
costato
fatture
dallo
alzo
##mentare
##llazione
preci
cappo
##cela
cif
gratuito
##sazioni
paul
paesa
tizio
partenza
sacche
avanza
comprati
sovra
rit
##terne
##stico
voli
volare
lily
lavander
vorrebbe
##zzando
certa
##mani
motore
imper
figo
rete
ricchi
chiamano
adul
##chiamo
troverete
nasc
pagina
estra
esco
pensarci
circ
tocc
togliere
vernice
lunghe
##tty
##tteremo
rispetta
consigli
avrebbero
air
leggo
stimol
durera
classi
costosa
##osita
braccio
preoccuparsi
ferro
arrivi
personalmente
music
mostrarmi
single
stretti
eccolo
moduli
sbaglia
richied
aperti
fritto
vincere
abitudini
chiamarmi
schermo
imbro
divertito
johnson
finita
rimasti
suite
ripro
generalmente
ingredi
##volto
forniture
interessati
spettacoli
rinfre
dettaglio
romantico
##fficienti
messaggi
tecnologia
pronta
imballaggio
apprendi
partecipato
registrazione
finanziaria
consegnato
passegg
dentista
considerato
parag
sederti
sedermi
specie
campioni
discoteca
gamberi
thom
brill
emozion
ripren
atteggiamento
sedetevi
ghiaccio
ridicolo
dipinti
museo
smettila
intrattenimento
ballerino
richard
raccogliere
fotocopia
appropriato
muraglia
henry
soccorso
imbarazzante
immobiliare
obbli
stereo
cheques
lavanderia
65
800
azz
brian
cd
eli
flu
gesu
hor
ir
ki
king
oss
sess
sand
smesso
tono
tanta
varia
wong
##bs
##ati
##ding
##gor
##vard
##lterra
##ws
##12
##34
##rete
dillo
divano
##tic
##tini
##osco
##oriamo
inghi
##ariamente
##inante
##iciale
##omenti
##cciare
##riti
anna
alcol
pref
previsto
cassa
caduto
suon
poten
mecc
pian
note
park
parto
saggio
##erazione
##spon
##una
belli
bucato
##rane
form
mod
impian
recu
##tenzione
glielo
stock
chilo
carl
carico
aiutero
propria
##chuan
trovero
peper
parliamo
aspetti
potremo
infermi
nave
pagine
atle
copri
fantasci
corsia
liberta
pensiamo
canada
lascero
fore
##essimo
ufficiale
indiano
risposto
consigliere
completa
contatta
decisioni
##ham
fermato
##petti
##quil
pubbliche
andate
##edback
joe
francamente
preferiti
attirare
opusc
conclu
visitato
lingu
compresse
erba
matrimoni
immagini
permette
luoghi
feedback
danni
raccomand
rinunciare
chiuso
cattive
vedro
deliziosa
capitale
addestra
lavatrice
prestazioni
apprezzo
linda
misure
campione
istruzioni
aree
will
addetto
comportamento
influen
gratuita
gratuitamente
maggiore
assumere
impressionato
educazione
moneta
monete
moderna
arrosto
manutenzione
meravigliosa
avvicin
paziente
materiali
inquinamento
riempire
jeans
pollici
dichiarare
padrone
accettiamo
arancia
guerra
frequentato
emergenza
globale
harvard
tessera
zhang
dolore
fornisce
wilson
pericoloso
riferimento
rompere
sfortuna
efficace
frustra
appassi
mondiale
tribun
ingredienti
emozionante
inghilterra
impianto
ara
amp
amato
bordo
bisco
east
fess
ferie
gina
geme
hil
listi
mp
menti
resi
sv
stro
usc
##ricol
##ate
##deri
##danno
##gale
##garti
##card
##way
##pena
##98
##19
##yd
##tole
##ondi
##tail
##iate
##rali
##rapol
dim
##llino
inda
intro
perfor
##ardo
##inta
sii
dec
defini
##omat
secca
segnato
##zioso
massa
anello
fase
comba
dave
letti
catalo
##ttile
dodici
##cell
benefic
##mite
prove
promesso
potra
patri
sally
sping
rib
riga
ridotto
scena
viva
##verni
orari
lavato
lavoriamo
manc
chen
chri
chica
chat
##metro
impare
impossi
tram
trasc
tramite
##ston
allumin
solle
soluzione
chitar
tayl
disposti
##derti
##derci
##estici
##anotte
altrove
petr
azion
portata
portarmi
parlarti
gioie
marchio
farci
farcela
colpo
##teremo
pagano
cock
corda
strapa
estroverso
pure
mangiano
interro
terre
terro
terremo
prossimi
espri
pensione
banco
banda
entrata
mercati
incontre
leggera
iniziale
##ggiate
vitamine
lasciati
intenso
economici
brasile
ciotola
fermare
continuo
clima
funzioni
pubblicato
appartamenti
agenda
personaggi
frank
franchi
attraente
condimento
condiviso
capodanno
ascolto
opzione
politiche
ruolo
sensazione
portera
trattare
necessariamente
scopo
cambiamenti
piovere
rapporti
compresi
american
attraversa
effettivamente
spiacenti
produtti
permettere
partiamo
partner
fortunati
panini
sfru
famosi
raccomandare
animale
##visore
##shan
metterli
cancello
aggiunto
turistica
tranquilli
dirglielo
tecnico
elettron
cioccolati
malapena
arrabbia
iscrivermi
bancomat
percorre
confermare
alzarmi
ehm
mettete
guadagnare
polvere
modelli
richiamare
descrivere
addebi
sfida
cameriera
##talita
obiettivo
parenti
ospite
segnale
costruito
griglia
digitale
navigare
mastercard
archivia
divorzia
divorzio
fidanza
precedenti
precedente
litigato
clic
somma
fastidio
nottur
travellers
finestre
salutare
sopportare
supera
sciar
pomodoro
ferito
dottor
inserisci
pillole
professor
fuoco
negativo
sorprendente
helen
anima
aspirapol
atmosfera
etichetta
festival
cappotto
ferrovia
thomas
meccan
fantascienza
fessura
listino
catalogo
chicago
impossibile
alluminio
taylor
cocktail
400
70
apre
bio
essi
gom
ille
igno
jet
ko
kell
lisa
mino
mari
nera
resta
sna
syd
wu
##ita
##ifer
##eto
##ror
##rgli
##tch
##dicare
##sb
##we
##mere
##mici
##top
##erare
##erry
##oles
##olino
##orsi
ingra
perifer
cheese
##arme
##inando
sicc
sichuan
sedia
magro
contrib
##sili
##dioso
##iuti
lettore
capp
caccia
sufficienti
##istri
##cep
cifre
proce
poch
potere
potente
##nior
##davvero
piane
piante
parker
vapore
delu
##entemente
abbinare
abband
abbonamento
vedevo
buca
##versi
voler
ragioni
mandero
prenda
##mante
##mance
davveroi
fiss
fissato
##onabile
temporali
##trici
guangzhou
##ders
carina
carica
accendere
adoles
tredici
trovarti
troverai
petto
eccoti
cindy
##gliete
alcuna
saputo
marg
automo
automatica
automatico
spegn
scus
collabo
salto
saltare
##terebbe
paghe
corti
corro
sarete
stufo
seria
seriamente
esce
puni
differenze
freni
##ball
uffici
bancono
indossi
poteva
potesse
gate
inform
distra
volevamo
familiare
leggerlo
pesci
##drati
informatica
comunicare
autenti
scrive
scriverlo
tenuto
dipendente
sopravvi
attivo
##forme
dormo
eccoli
correttamente
racche
letteratura
sentiamo
recen
cambiando
prestiti
vederli
vederla
antipa
##monia
jason
sistemi
contenuto
immaginare
soddisfare
ritiro
assegni
##denze
scienti
carote
incluso
sosp
crimin
lavorano
usate
romanzo
250
cresciuto
blocca
brevi
pistola
dirle
elettrici
##niscono
cominciare
dargli
gruppi
migliaia
energico
depositi
allenarmi
##ghero
industri
##tional
mezzanotte
considerando
ricevo
riceve
spiegare
purche
rilassante
esterna
investire
arrestato
tariffe
hill
amichevoli
junior
thri
occasion
spendono
ingegneria
giocattoli
dormitorio
meriti
crediti
impression
##rley
promemoria
applicare
rossetto
proteggere
consulente
sociale
meraviglioso
larga
acquisto
creativo
dramma
notturno
onore
flessibile
integra
mostrero
eccellente
raccolta
entusiasta
dimenticavo
lusso
luminoso
costumi
fallito
restituirlo
esclusi
furto
onestamente
affascinante
shirley
lampada
ritmo
fotocopiatrice
tribunale
performance
cioccolatini
aspirapolvere
kelly
snack
sydney
periferia
siccome
pianeta
48
42
600
75
agg
ami
ade
aglio
asso
aha
cel
irre
kare
liu
lento
morta
ps
sale
svol
tan
tale
zel
##itti
##tene
##uma
##ore
##oke
##dom
##dena
##gon
##nt
##lina
##ltura
##wa
##word
##fe
##11
##10
##onc
##ons
##onale
##tanti
##tino
##ospetti
##tetto
##llen
inn
chef
lamen
laura
simb
silen
##notte
##icola
##erebbe
##dore
seggio
##ziosa
mag
mac
conte
fagi
alza
##mendo
##voca
prep
preventi
statu
staff
catte
##ise
##ish
cipol
##lib
##pper
##ppie
pavimento
##olog
tip
##gnome
pentola
avendo
avven
avranno
avessero
##bil
comporre
rim
rigor
##stiche
scale
scala
villaggio
volume
raramente
mancano
creato
crede
prend
##inetto
vengano
motivi
##schi
fif
firmi
ricci
allarme
guai
carre
riserva
chiamando
accon
accel
acceso
adesi
##zzature
piacesse
dispiacere
proposta
guardero
peggior
eccoci
sentiero
divertenti
orgo
giusti
portarlo
parlarmi
saprai
usiamo
cognome
corte
mangiamo
fuma
steph
assomi
pieni
calcolare
canali
cancro
mensa
vergo
verranno
espre
espan
##bama
luna
filoso
prenotazioni
stanca
risposte
vicenda
completare
conosciuto
controllero
volevi
giri
incar
costolette
assicurarsi
##ttrodom
capitolo
beni
scara
scaduto
amicizia
aumenta
riesce
##utazione
pianoforte
preoccupi
cioe
scrivi
continentale
##pei
funzione
esperienze
affida
elezioni
elettrodom
sinistro
##iang
stretta
goo
raccon
posizioni
positivo
attendere
polizza
rug
preparando
senior
password
uhm
apertura
lavoratori
##istico
rimane
offerto
spostare
prenditi
chiamiamo
indossato
perfetti
isolato
pulita
produttore
rendi
immagine
finiti
inclusi
ripararlo
crimine
fossimo
trimestre
metterci
metterlo
cattiva
girate
comodita
corrispon
prestare
limitato
trasporta
umor
raggiunto
apprezz
funzionato
funzionera
incidenti
110
darle
##signoraioni
orien
pacchetti
sposata
scontato
mangiando
iscritto
iscrizione
intelligenti
casino
argento
rilassarmi
educato
investimento
contiene
permettermi
esportazioni
strumenti
beijing
sostituire
ricordato
regolare
scambio
scambiare
pratico
quotidiano
quotidiana
italiano
vedremo
escursi
iniziero
rifiutato
scendi
religione
ottanta
difetto
congesti
avanzato
attrezzature
comprensione
normalmente
golf
finestrino
windo
analisi
facessi
scortese
equilib
uccelli
invernali
marciapi
destinatario
imbarco
anziani
cavallo
timido
strategia
reclamo
albergo
adulti
stimolante
imbrogliato
apprendimento
horror
biscotti
strof
chitarra
gioielli
strapazzate
ferroviaria
thriller
karen
zelanda
cattedra
cipolle
dispiacerebbe
elettrodomestici
29
38
agne
br
bosto
brin
cere
getta
ill
isti
lenti
mc
nom
oper
odore
rossi
slo
stri
scora
sha
tina
tian
ugu
utenti
work
##ble
##roni
##rtelo
##terai
##up
##umato
##dando
##ganti
##cla
##cando
##lato
##hh
##wood
##mina
##yo
##xy
##rendo
##tono
##tone
##ondo
##erato
##erli
##ent
##ens
##tane
##iali
dise
ditemi
dirci
##tivita
##ance
##andia
##lloni
##ester
ine
##roba
perder
cheque
lab
simpa
decol
decente
##ich
##ichi
##omando
segna
secoli
seduti
sexy
##mous
##uovere
magni
maglie
condu
contatore
fatte
dapper
presa
presso
stazioni
stanotte
cami
cash
##chezza
posteriore
sugli
##mpi
##trato
##ppeso
##cue
patti
palli
metta
mettero
##tuiti
piatta
notare
##violi
sposi
##mbra
penna
avra
vaso
comprando
sottile
##iormente
##uncia
farete
farebbe
rigi
andranno
##entino
scal
scene
sciare
##late
viola
voto
votato
prime
volanti
limous
rallen
ravioli
miao
mancato
balli
baker
forne
##gata
vendendo
##icamente
mobile
recita
recep
arbi
ricchezza
apple
temporanea
tagli
tassi
tazze
cartello
doveva
sentirai
avevi
giocano
sapori
saltato
quadrati
atl
cotta
finali
visti
interru
interpre
steve
caldi
calore
torte
torni
chiedo
todd
foglio
esatta
controlli
registri
bang
##ttle
costante
curi
impara
indosso
##cker
inglesi
ordina
risparmi
##tinta
vicina
qualifiche
telefoni
torneremo
conosciamo
scegliete
arriviamo
arriverai
gita
ragionevoli
naturali
ricevute
acqui
acquisi
spazz
pesca
decisamente
##ficazione
informato
##gure
negoziare
profitti
tengo
occuparmi
agricol
##kea
senzatetto
joan
scrivendo
attrazioni
scaricato
scaricare
eccesso
eccezione
signific
raccomando
scusatemi
trattamento
lavoratore
passati
fritti
vince
effettu
transazioni
accettate
antichi
preoccupati
conferenza
##ostante
facciano
rimasta
edifici
assemb
assegnato
musc
scienzia
scienze
sieda
desidera
inclusa
riporta
riposo
matrimoniale
risolverlo
198
199
premere
chiudere
continuato
crescono
crescendo
ricordate
blog
cenare
straniere
straniero
cancellato
continuate
rifare
succedera
dirvi
dirtelo
tornado
scomp
comincia
registrato
fondotinta
reputazione
malata
greene
##ght
orientale
sconti
offrite
recentemente
spiega
basato
candidati
esaurito
facevo
relax
progressi
specifico
permettersi
piacciano
festeggiare
peggiore
curry
struttura
costrui
sfide
magazzini
vecchie
sforzo
riconosc
fermarmi
stressante
turistico
educativo
comunita
tony
videocam
attesa
yoga
sigaretta
acquistare
titoli
viviamo
perfettamente
compilate
progettando
fastidioso
aggiunti
messico
messicano
onorato
insegnamento
stabilito
corea
eccellenti
turni
incoraggia
invernale
fotografiche
concorrenti
destinazione
thailandese
thailandia
coraggi
spreco
speravo
acciden
cugino
medie
indipendente
conservare
garantire
ulteriormente
rilassati
ombretto
procura
burro
resistente
nipote
sacchetto
sovrappeso
richiedono
rinfresc
brillante
azzardo
sessanta
modalita
recuper
infermiera
minore
occasionalmente
impressionante
fagioli
preventivo
rigorosa
filosofia
rugby
umorismo
windows
equilibrata
agnello
boston
magliette
dappertutto
camion
limousine
recitazione
reception
acquire
1°
34
ap
agi
bun
best
bolli
corta
cari
dv
dj
der
dando
egi
evento
fla
gala
ipo
jerry
lana
moni
ming
neri
oscu
obama
sesto
sana
tos
tene
tesi
uva
uten
za
zia
##bol
##eziona
##rdo
##tia
##tha
##ula
##ubato
##ografia
##dro
##dali
##gan
##gui
##gura
##nale
##van
##viare
##can
##cale
##cqu
##ho
##stre
##molo
##ziamo
##fu
##82
##62
##30
##ja
##erla
##erson
##endio
##rabile
dita
disegn
diciamo
##tice
##oster
##tele
##olto
##ortiamo
inno
perdi
perde
perse
pertin
lag
##int
##into
##inario
size
##ick
sea
sete
severo
may
matu
masca
##cciato
conforte
##rire
##ttol
mil
##lex
fallo
tubo
hall
stage
stavamo
cate
cadere
cattol
post
posate
##isso
##isky
##celo
poveri
tema
paia
pasta
meda
nozze
sam
sabbia
spic
spri
speri
##mba
##spetta
ridere
andy
anderson
vedono
buffe
##naio
##tretto
scalda
##veranno
prigione
libbre
raso
queen
quegli
mando
manico
ball
bache
basa
batter
crederci
##gnon
cerchi
prendono
prendera
##metter
##mellata
##gas
##icata
morendo
##nei
filo
reali
rick
trama
tratten
trading
apprezza
stop
tap
tail
fattori
capisci
prosc
prospetti
quindici
rischi
chiara
accor
sembravano
amare
##tarsi
##tarla
##ziotto
dispiac
guardi
affer
giuste
portarli
portarla
parleremo
parlarle
##ccupo
marzo
marmellata
spedito
farsi
potreste
infine
colla
salato
nascita
cop
coda
cotone
fantas
stradale
finanza
finisce
serv
estre
viaggiato
calend
fresche
canto
circon
top
tova
toky
verdi
interessi
gennaio
camer
fob
fox
televisione
##ditoria
cub
##evoli
imparo
telefonata
consiste
abbiate
informale
arrivero
bambina
assicure
spavento
costosi
##guito
assicurarti
assicuratevi
scattare
##utati
profitto
bow
long
lontana
superfici
universitari
aghi
andavo
medica
barba
barbe
contratta
contrattare
sinto
singa
##coln
preferibilmente
deputati
goccia
tavola
tavoli
poliziotto
hello
preferiscono
sensibile
porte
nuvol
reclu
dipingere
invitarti
pechin
frigo
vinc
concord
transazione
visitatore
responsabili
sposarci
sposarsi
prendilo
##cchette
eric
erbe
confli
attraversare
sistemare
##vitabile
spiagge
ambul
renderlo
gentili
ritirato
capace
##grafiche
desideri
altadena
ripara
durata
usati
presentare
continuano
ricordatevi
deliziosi
comoda
tradizionali
aerob
diritti
conveni
cartella
elettrico
elettronica
avessimo
incredibilmente
registrare
cartoni
professionali
professionisti
link
lincoln
valida
prepararmi
novembre
paradi
intelligenza
relativamente
saliti
alzarsi
guadagn
scioccato
permetterci
lancio
lanterne
soffia
causare
umani
venite
veniva
portiere
riconos
occidentali
occupata
occupati
prometti
chimiche
rubinetto
annuale
ripreso
storto
soddisfazione
coinci
impegnati
amministrazione
amministratore
religi
respirare
congel
legali
doppie
profondo
profonda
normali
stabilire
garage
elaborare
nancy
whisky
aspettero
sbrigati
costume
concorrenza
gonna
battute
asciugamani
morire
noleggio
inaspetta
accidenti
vegetariano
convincere
desiderio
consapevole
consapevoli
falso
combinazione
civile
proibita
mancherai
robert
auguri
mattoni
scolastico
estensione
successivo
fotocamera
maschera
emily
immer
matita
obbligato
peperoni
opuscolo
appassionato
hilton
seccatura
vivace
terreno
terremoto
sfruttare
sciarpa
pochissi
criminali
associa
espressione
google
marciapiede
inevitabile
pallido
dvd
derubato
utensili
##ezionate
mascara
buffet
prosciu
tokyo
superficie
barbecue
nuvoloso
37
41
56
66
95
aa
africa
alex
bl
ceri
clin
dente
ebb
epo
emor
fede
ferita
gno
gino
han
hun
holl
hard
honda
ib
ista
jan
ket
mm
my
mina
muta
os
oak
sdra
smar
torre
vere
veri
vomi
west
wood
yang
zi
zero
##burger
##ef
##rdi
##rossi
##riche
##ata
##tw
##urare
##uali
##uston
##ds
##dri
##getta
##garmi
##guire
##cero
##land
##sing
##sha
##ward
##mis
##ming
##90
##65
##kes
##king
##ermente
##tanic
dig
digli
dina
disse
##tettura
##olio
##oria
##anmen
##esia
##essa
inti
perd
persa
lap
##ars
nonostante
##inera
sit
depre
##icce
see
conse
conne
ansi
anne
mignon
##glish
houston
##lea
fav
fascia
commesso
happ
let
stabile
statale
statua
cater
cattu
cabina
tex
tech
grato
pazza
##ffie
##fferta
##vimenti
tiro
titanic
saun
spina
sposo
splen
##mbo
sotter
##unta
betty
abbina
rivol
andre
vetr
##selo
butta
busta
esserlo
viol
vola
lieto
maniche
bara
badare
baby
char
vena
vent
veniamo
venture
siate
##mania
##icie
impedi
fissa
fissare
figure
sicura
ricomin
traduzione
allonta
solare
sollevare
##onati
approssi
grand
##mmy
tacchi
tatua
disposi
fattoria
##usso
##cchini
dovevamo
piaciuta
##tarli
##chup
miele
pell
sentitevi
sapro
saperne
marina
autore
english
spezzati
farle
farli
infezione
colon
coltello
nazionali
quader
attrice
copre
coppa
coperto
cortile
esci
puro
interviste
gialli
piede
calmi
canton
menzionato
tocca
aspettative
genera
camicie
esplo
esposti
esposizione
importanza
regal
regista
##ttente
curare
custo
impacche
imparando
india
indicazioni
ordino
roto
rocce
poteste
consigliato
tornerai
incontri
arriveremo
leggermente
malissimo
riceverai
##ttendo
spasso
spaghe
claus
costose
cedavvero
informatico
iniziativa
aiutarlo
lasciano
lasciarmi
intende
benja
scade
ottengo
stiano
funghi
collezioni
dipendenza
probabile
agenti
diventano
mostrarvi
barre
contratti
joint
indire
ottimi
##forma
incontrata
esercito
disponibilita
frasi
sbarazz
politici
prenderli
prenderla
richieste
specializzando
pagati
sportivo
artista
artigia
campe
ovvio
metterei
sottoline
friggere
piovera
effetto
accettabile
##stenti
frutto
comprata
americane
conferenze
valori
adatti
1000
risparmia
aerei
finirlo
sorri
consumo
consumato
figliolo
##grafie
cinemato
scienza
provate
cristia
femm
##messa
famose
dance
camminato
fermati
dettaglia
controfferta
suggerimenti
suggerirei
straniera
linguaggio
esiste
turismo
diavolo
lavaggio
tecnica
apprezzato
fumatore
comincio
cominciamo
mettiti
mettilo
valigie
pulisco
preparazione
cercate
frequenti
divario
candid
colline
sons
facevano
classico
designer
licen
compili
filet
130
micro
domestico
valutazione
strutture
universitario
judy
with
addebito
vuoti
gravemente
sostitu
innamorati
giapponesi
pareti
modificare
ringrazio
costruzione
ricordar
rubare
annullare
estiva
manuale
architettura
consigliate
consigliarmi
soddisfacente
avvicina
impegnativo
proprietari
aggiorna
inquin
inutili
copertina
respiro
stampante
quadro
quadri
comprende
arance
guerre
pietra
facesse
rapina
rapinato
aspettiamo
compagnie
lusing
luminosita
pomodori
coraggio
rimbors
ringraziamento
black
blake
ponte
pontice
rivedere
farmaci
farmacia
giornalista
giornalismo
balc
negoziati
bilancia
roves
auguro
ambien
square
metodo
chiacchiera
confronti
addormentato
germania
##ship
paesaggio
nascon
sbagliata
passeggeri
osserv
potenziale
formali
navetta
coprire
influenz
mentito
definitiva
beneficenza
spinge
mancanza
interromp
esprimere
divorziato
fidanzata
illegale
cheeseburger
abbandonare
adolescenti
spegnere
recensioni
bloccati
elettricita
tango
silenzio
orgogli
assomiglia
scarafa
labori
agricoltura
effettuare
accidentalmente
recuperare
confortevole
spicci
bacheca
calendario
cubicolo
pochissime
prosciutto
epoca
holly
ibm
ketchup
mutan
dinastia
happy
catering
saunders
approssima
spezzatino
cantonese
benjamin
cristiani
05
050
43
asta
deri
el
emos
foster
isa
igi
immi
ikea
ji
jess
ke
kev
kung
mono
merita
momenti
osc
odia
omici
occupo
pano
plu
qi
roll
sg
sm
sere
sesso
squi
toni
utente
ufo
ucla
vani
wor
want
ze
zitto
##rt
##rino
##tuo
##uch
##upon
##odo
##oper
##dolo
##gr
##ng
##ving
##cola
##ld
##su
##miamo
##mica
##marlo
##pm
##port
##ford
##fondi
##78
##77
##ki
##ken
##yak
##21
##25
##resti
##ongo
##ers
##entuale
##tari
##ianti
disti
dick
##tiene
undici
##teo
##olare
##olini
##ancia
##eschi
incu
##room
perdero
lau
latti
lavore
##ary
sig
##altato
##icl
##icina
##icoli
##icure
##omb
##omente
sel
sepol
settori
mappe
convi
##ttono
##ttolo
anteriore
milia
hot
fatelo
commo
commenti
##dire
##disi
datti
alan
##llaggi
prevenire
hacker
##ssero
##ssetta
stavi
stadio
caduti
##bbo
##cire
##cioso
sub
sun
suda
##iscano
grassa
##sabile
pazzi
piaci
##ttata
nood
##viglie
lotteria
look
tifo
parson
vasca
##biti
##bite
compriamo
bevi
abbron
rita
ride
##teri
##terale
##terrato
vetro
##stiera
big
esser
##lata
visione
##verci
oratore
priori
volon
lim
libbra
mandi
bad
bagni
bagna
battere
credono
##gnarmi
chinato
##inazione
ford
forze
forniscono
##mette
##gate
vendo
quiz
motiva
imposta
import
##sciamo
fili
figlie
reale
armi
ricetta
tradu
##stone
tasca
tastiera
##try
##gore
carol
carini
cartelli
risca
accetto
##ciatore
amsignoraione
ammettere
settimo
parteci
diretti
trovano
trovarne
alletta
sentimenti
sentirsi
affe
affolla
giudicare
marche
martin
margare
marziali
entriamo
spezie
aspir
farina
farne
farmaco
scuso
scuse
scultura
potrete
colpi
sals
saldare
salario
salvare
national
pagarlo
cool
cotto
coppie
coupon
finisco
prenderei
prenderemo
##llie
serale
conoscono
manghi
pizz
calmo
calde
calze
freschi
cande
##ruzione
lascio
mentalita
succedere
versa
verrai
versione
uniforme
##gee
importazioni
foglie
esager
televisore
registro
regalato
restero
##zionatore
impatto
onda
hmmm
entrano
ordinate
proviamo
provarli
pensava
gall
##ettore
giriamo
incor
incinta
malatti
fotografia
invest
contattare
ricevono
dubito
##diate
spaziosa
pescare
guidi
guilin
iniziano
assicurarmi
assicurarci
riusciamo
aiutarci
##ggiano
guardaroba
intendo
riesca
brad
bravi
trasmesso
caffeina
puntu
sapeva
colletti
collegato
apparten
musul
201
affitta
diventera
mediche
mostrano
##press
insegnare
indivi
franci
preferite
altopar
attraenti
condizionatore
incontrarmi
fonti
stressato
veloci
corretta
govern
governi
hmmmmm
##tatina
fragi
opere
sbagliare
polizi
richie
porzioni
porcell
##ration
sportello
sportivi
sportive
passate
documentari
artisti
campane
interessano
trasferita
trasferirti
sottoval
accettarlo
insoli
visivo
##ddie
sposare
dolori
chiameremo
estati
bruce
brucia
isola
immagazz
attravers
scherzo
pianificazione
parlami
esecu
produrre
produttori
rilasc
svizz
rimaste
conserva
mucchio
mutuo
fortunatamente
export
express
discusso
discussione
ingor
parcheggi
critica
crist
sfu
feder
dann
raccomandato
morti
bellissimi
presentato
imprese
pellegr
scherziamo
chiedermi
##shop
mettermi
metteranno
pubblicitaria
laureati
##gnoraione
cattivi
riuscire
aggiungi
corporation
diventata
arramp
capitano
prestato
limitare
taipei
tornati
tecnici
pronuncia
finanziarie
destro
competenza
colpevole
allenato
allenarsi
pulisci
prepararti
certifica
mangiate
complesso
ricevimento
bancone
esauriti
sederci
argomenti
rilassarti
percentuale
confermato
alzato
riguardo
investimenti
arren
arredato
guadagna
specifici
milione
privati
private
sangui
fondata
mettono
ordiniamo
olimpico
high
strumento
assistenza
accogli
julie
muoversi
dimensione
rappresenta
caratteri
idratante
insegno
gridare
maglietta
navigando
annuali
rinnovo
rinnovare
rumorosa
kate
simili
arrosti
pratiche
separa
accompagno
accompagnare
italiana
bollette
concentrarmi
pazienti
chattare
fiducioso
coinvol
rifiutare
aggiornato
fiumi
banking
jeff
tieniti
paghiamo
assunzione
installazione
culturali
ghiaccia
integ
showroom
descrizione
debolezze
who
cambiera
dimenticate
schiari
uccello
ucciso
determinare
sciacqu
gonf
dottorato
noleggiare
seminari
organizzazioni
celebrita
attacco
assass
umido
decorazioni
miglioramento
indipendenti
piovoso
civili
ripeti
bilancio
ulteriori
droghe
mattone
metodi
spuntatina
impostare
fotocamere
maschio
diploma
stron
sostanze
paesaggi
avanzata
toccare
riprogra
passeggero
paragonabile
fluentemente
sandali
preferenze
##raneo
consiglierei
visitatori
linguistica
willia
frustrato
uscendo
massaggio
petrolio
franchigia
produttivita
elettronico
addebitato
archiviazione
clicca
notturna
maritti
cappu
margine
automobil
automaticamente
scusarmi
pagheremo
punizione
racchetta
scientifica
industrie
integrale
##oncini
simbolo
adesivo
vergogna
aumentando
cattedrale
brindisi
operatore
uguale
workshop
disegni
pattinare
piattaforma
rallentare
interruttore
scienziati
coraggioso
acquirente
bungee
zaino
seattle
medaglie
sprite
dispiaciuto
bowling
singapore
concordato
aerobica
riconosci
promettimi
coincidenza
cerimonia
gnocchi
ginocchia
sdraia
sitcom
charles
allontan
quaderno
custodia
spaghetti
cedavveroi
artigianato
candidarmi
balcone
chiacchierata
scarafaggi
emostati
kevin
oscar
panora
world
zecca
##yaki
incubo
dattilo
sudafrica
noodles
parsons
chinatown
motivazione
margaret
malattie
investment
altoparl
33
88
900
af
atto
amante
bia
boni
bosco
binario
cm
et
eso
ela
egua
ether
editoria
eruzione
fiore
folla
fingere
gro
gone
gay
gard
holi
iri
illi
lina
mona
mba
miche
ner
nba
one
panno
pne
pessi
pista
pong
pessimo
qing
ry
ross
tw
teri
umano
ww
wen
wal
wire
yen
yello
zone
##it
##bri
##ep
##eti
##ette
##econom
##rmene
##ascia
##uque
##ot
##dola
##gre
##gendo
##vente
##vver
##vali
##vante
##cri
##cle
##certo
##ler
##less
##squa
##west
##mini
##mista
##minato
##pio
##pel
##zu
##fato
##45
##70
##kins
##18
##13
##56
##yu
##29
##quo
##32
##onde
##eng
##tagna
##tanto
##rado
dic
dito
disi
dicia
##tili
##osh
##tec
##orn
##oroso
##esca
inde
inverni
##rodol
pertanto
lamenta
labbra
laterale
##art
##ark
##incia
##inano
ded
dele
##icando
##icista
##omma
##erendo
sezioni
severe
secolo
setole
##ziose
max
mais
massi
macy
macina
##ccino
contare
conchi
costerebbe
mit
##let
fatemi
fatic
comsignoraioni
##dizione
##dizio
davver
##mentazione
tutor
preve
preme
presc
##ssia
stavano
casi
caval
poster
suzhou
dog
##cetta
cie
##ggo
##ggiamo
##ggero
##ggis
poker
tetto
teoria
gramma
gramer
grafico
gratuiti
paci
pappa
pallone
pasqua
memo
mela
mezzi
mecca
##tudine
pianta
piastre
##ttanto
##ffo
love
logo
##lota
##trot
quant
spar
pentole
avvis
avverti
sof
sogg
sognato
##cazione
##camento
##deremo
##ungare
beve
beck
ridi
rifor
##teria
buio
buste
bush
biondi
biondo
##nagione
esse
scre
scand
##lam
volando
dovessi
lavand
rate
raro
##tteg
##ttempo
mantiene
manicure
##ranza
bagnato
bacchette
babbo
cervello
##arita
##inata
##inaggio
##inaccio
forche
##ollare
##mea
##metti
##gallo
venendo
##icate
##manti
davveroe
##mpoo
rea
retta
recip
##trizioni
tratter
traccia
##stono
alleno
##mmm
tavern
##trio
##triale
sembro
prose
gusti
guanti
guancia
##dersi
##derla
##deranno
##olata
carnagione
accesa
accedere
amor
##cchino
guardiamo
guardia
tregua
tremila
troviamo
ped
sentite
cintura
orosco
affre
portami
portarti
parlargli
giochiamo
giocando
sapone
sapessi
marroni
martha
usura
annie
specchio
dopotutto
farla
farglielo
suocera
colli
coloro
coltiva
salone
salva
salito
nath
nastro
pagarti
attenti
coun
cognato
coop
cooper
corra
stufato
iniziamo
fantastiche
##book
##veniente
interni
interferi
pensera
##utine
assente
pigro
pilota
calci
canti
canad
tornata
chiedera
##grafo
mentendo
##cciolo
unite
##gement
fogli
##estata
pensionamento
telegior
telecam
regina
##bata
ufficia
restrizioni
partiti
##ditori
chiamatemi
cucire
stanchi
cercarlo
provincia
robo
routine
vicine
qualifica
telefon
considero
gassa
inconveniente
completi
completato
tarda
infortu
disgu
distretto
bambine
servire
incendio
##stello
ricevera
riceverete
duri
spada
spagna
guidera
sentono
##gurt
assicurativa
altrettanto
##ggiati
308
lasciarli
orecchini
scappare
amicizie
economiche
scrittore
caffetteria
professione
bouque
lonta
puntuale
supervisore
tende
tenga
tendenza
tenermi
arriveranno
1500
dimentichero
insisti
collezion
affitti
elementare
eleganti
agrodol
andasse
##urgo
sinda
insegnarti
insegnargli
##colato
ottieni
datori
dormendo
ecce
correndo
fair
frate
positiva
ascolti
ascoltato
sbatte
prenderle
preparati
##ppata
passero
aperte
trattato
sporco
recenti
invitare
scozia
scoper
rimanga
rimandare
cambiate
colorado
##zionamento
trasferirsi
piombo
vinci
vederci
accettata
accettazione
insomma
507
preoccupata
abituale
comprate
comprarle
sposano
sposarmi
organizzato
lucerto
attraversato
valentino
donald
pianificato
commercianti
dioermi
ambascia
eseguito
permetta
soddisfatti
finira
sciv
panni
panda
ritardato
generali
wei
bevendo
sfra
lavoravo
fornira
fornitore
interessata
2004
2002
danny
arrivata
morley
##minton
presentazioni
scherzare
compilato
180
romantici
suggerito
metterti
soleggiato
mmmm
mmmmmm
management
cresciuta
cresciuti
##ttrice
tempesta
tempeste
centre
utilizzato
bretagna
turista
pallavolo
rifle
dial
diamanti
piselli
capirlo
addosso
addomin
dirmelo
prestando
tecniche
cartellino
collocamento
elettricista
imbara
imballaggi
fatemelo
repl
approva
assistenti
rimbal
allenatore
pulci
##ghiamo
##ntane
industriale
giornaliero
quota
##vedibile
scontrino
offrirti
inviate
geologia
alieni
complessi
frequenza
varie
basicamente
collina
invecchia
seguiamo
rilassarsi
ispi
ispezionate
alzare
guadagnato
stupirsi
aumentato
semafori
bicchieri
janet
rispettoso
permetterselo
polso
converti
militari
fabbriche
soffi
soffrire
privacy
felicita
australiano
fondazione
schede
accomod
ordineremo
dirotto
universitaria
jump
venisse
operazione
brisb
##lines
schifo
conoscete
innamorata
drive
sforzi
riconfer
fermarci
corridore
##gorie
ospitalita
commercializzare
turistiche
indovina
merito
lavorativi
seguite
seguimi
dimostrato
ognuna
riass
##zhen
applica
kara
tonalita
manif
maniere
consultare
consulenza
debbano
separati
stordito
urgentemente
yogurt
regolamenti
concentrato
zodia
presente
pazienza
coinquil
cellulari
central
amministrativo
aggiornare
coperta
progettato
riempi
clark
ottawa
pollice
sommato
legale
avanzare
armadi
diversamente
quadrato
paghero
paghera
attrezzatura
organizzarlo
aggiusta
opinioni
cruise
elaborazione
harry
wind
analizzare
dozzine
raccolto
nanjing
turbol
cassetti
schiaccia
dolorante
elenca
dischi
televisive
selezione
battuto
richiamero
asciugatrice
seminario
seminterrato
cugini
firmiamo
organizzative
competizione
vegetariana
croce
cavalli
andartene
accende
piovuto
555
nevicare
ripetere
mandate
manchera
allergico
robin
quarantacinque
squali
vargas
memorizzare
sostenere
disturbarti
ubriaco
string
impermea
circolazione
airlines
prefisso
potenziali
atleta
atleti
foreste
linguistiche
raccomandarne
sfortunatamente
gemella
mp4
mp3
residenza
svanta
dimmelo
introdu
decine
patrigno
christ
incontreremo
percorrete
notturni
meccanico
kobe
collaborazione
banconota
banconote
antipasto
sospetto
esclusivo
aggressi
irrevoca
contempo
rimuovere
credetemi
fifth
acconcia
peggiori
apprezzerei
orientamento
escursioni
strofinaccio
illum
scoraggia
shampoo
volantino
tagliero
muscoli
videocamera
rigorosamente
apriamo
flash
monitor
tostato
tenete
pertinenti
categorie
prospettiva
camerino
pechinese
ambulanza
convenienti
paradiso
congelatore
blue
hardware
istantane
janice
minaccia
smarriti
laptop
depresso
catturare
texas
ricominciare
tatuaggi
dispositivi
esplodere
clausola
femmini
ricordarmelo
ponticello
interrompere
hollywood
mutandine
immigra
jimmy
omicidio
smal
vaniglia
selva
badminton
salsicce
gallerie
incorpo
individu
francisco
polizieschi
porcellana
cristiano
sanguigna
rappresentanza
assassino
ethernet
garden
holiday
illimi
michelle
teriyaki
www
wireless
yellow
macinata
gramercy
pappagallo
riforni
lavandino
recipro
tratterro
cooperazione
canadese
telegiornale
bouquet
romanticismo
addominali
brisbane
39
31
59
62
72
aia
aro
acu
ago
auti
attori
by
brita
cp
ces
cesti
cron
cicl
ei
eb
ego
editore
ellie
fol
fetta
foste
her
itin
jes
jul
jord
jiang
kf
kim
lis
mr
mento
nomi
nick
nyu
ox
osta
obs
pc
pine
prato
ruo
rior
rand
russo
sw
she
santa
tolto
utenze
van
vesta
way
wat
ya
zen
##igli
##bia
##bio
##bone
##bine
##brale
##ec
##ek
##ey
##ezioni
##rl
##roso
##rosso
##avviso
##ttra
##ude
##umendo
##ool
##otto
##doli
##diato
##gini
##garlo
##gistra
##nn
##nque
##nuti
##viamo
##vanta
##varlo
##varli
##car
##corn
##lare
##lene
##lista
##sale
##stri
##sura
##mono
##mola
##messi
##ps
##pul
##petto
##zero
##ferendo
##88
##46
##97
##63
##kini
##kok
##567
##yn
##yer
##xel
##jj
##jin
##jiang
##rea
##registra
##ond
##onali
##ondare
##onesto
##erale
##ende
##tasse
##tativo
##iaio
##rami
##ragia
diss
dille
dizion
##tie
##tes
##oltini
##any
##andi
##estro
inso
##roc
perle
laccio
lattina
##aron
##iner
##inali
simon
deva
severa
seduta
severi
masti
matr
mattu
mazze
macchie
##ccetta
cond
conigli
##ridge
ansia
costare
mix
mira
mite
miller
how
hock
##letto
comb
comm
comod
ala
altamente
##ium
##iusto
##mati
##mentato
##llastro
prezioso
preavviso
haw
hallo
hajj
leop
legati
##ssarlo
cavi
cattura
cather
cassetta
##atori
netto
nebbia
netw
##chestra
##cione
##cipi
suoni
suonato
##cel
ciglia
city
##lita
##trata
##mie
##mita
##corare
##nifer
gravi
##pporta
##cus
##velo
pay
pazz
pattina
paula
pavimenti
##ologico
mel
mega
noto
noci
novita
novanta
##zate
##ffles
##vidi
lou
lotto
lozione
logico
timb
times
tirarlo
sau
sauna
##llette
spons
spinto
penny
pendol
ava
avvisi
avversario
vasi
vasta
company
sottra
##glione
bevono
abbona
rimp
rifer
##terna
##terali
buil
bir
birre
biologia
bikini
##tretta
##lazione
vivamente
voluti
like
ohio
vorrebbero
mane
manchi
balla
bacia
basse
credete
##gnarti
chicchi
cerchiamo
##arire
forme
vendiamo
venuta
venderlo
venduti
mounta
##nel
##nello
rem
ref
reda
piacevano
ricca
tratti
allesti
##onate
gliel
##mmare
nuota
tagliato
disposta
disposizione
duemila
capisce
card
carro
carbone
##ust
risarci
accesso
accura
accusa
accredi
acciaio
addi
amma
amiamo
ammetto
amsignoraioni
problem
dovevano
##tardi
##tarci
##tarvi
##tariato
aiutano
aiuteranno
##cheria
trent
pete
petteg
petardi
alloggi
sentirmi
orlo
orchestra
giuro
giudizio
portatemi
portarne
parlero
##orie
##orida
mario
marchi
usd
useremo
autorita
end
farfa
infel
infanti
saldi
saltati
salotto
nause
atter
atterra
cotte
coord
##eld
corde
strava
stradali
finisci
serra
serbato
liber
esen
pugn
interfa
giada
faccende
assumendo
viaggia
pier
pittore
pigia
pirami
calcolo
calam
cambridge
chiediamo
lasciamo
menare
touch
vermi
##cciglia
aspettassi
averci
genio
generazione
espressi
esperti
focus
##ulant
##essita
control
pension
pensiero
##babile
banane
restr
##tterai
##pixel
##dremo
cubo
cucchia
cutane
office
indic
cercano
room
roger
roulant
merda
potevamo
consis
##anie
controllarlo
disonesto
pompi
arrivano
bambole
incol
malesia
involtini
spara
spalla
sparare
pesare
pesanti
guidando
computers
universo
second
cemento
##gusta
inizialmente
riuniscono
migliorera
lascialo
lasciarlo
scaduta
scadenze
maggiori
aula
##thy
braci
traslo
trasferendo
preoccuparvi
scritti
scriver
ottengono
superano
tenerlo
tendenze
tentativo
##pette
collezionare
poterci
potermi
poterne
appuntamenti
occupiamo
diventati
andassi
mostratemi
sopracciglia
barcell
shu
contrattato
personaggio
seguo
fortunata
attratti
condizione
datore
dorso
fonte
principi
significato
correggere
godermi
frattempo
school
1200
positivi
operai
sbagli
politico
richiesti
acquazz
hea
rumba
specializz
specializzati
necessita
passiamo
passera
passando
##attina
pagamenti
diping
necessari
necessaria
scogliere
##istici
rimanessi
cambiarli
colorate
opposto
firmo
trasferirmi
sottocom
friend
##tturazione
anticip
##monio
pranzato
pranzare
preoccupazione
abituero
abituerai
comprano
comprarli
trovati
jazz
scelte
chiamarlo
chiamarla
palco
indossero
indossano
perfette
isole
confu
puliti
pulizie
domici
domattina
valu
valga
dioe
##andesi
sistem
facciamolo
carame
sociologia
spedita
risparmiato
divertiremo
divertirsi
soddisfi
sorse
ritira
bianche
biancheria
##denziali
scimmi
scivol
siedo
baseball
excel
incluse
panna
pancetta
discute
discuterne
sviluppi
soster
ingen
ingan
ingran
ingrosso
riparo
week
parcheggiato
linee
medicinale
fette
##lleria
fornito
fornirvi
fornitori
smette
spettacolare
raccomandi
bellissime
usata
svegli
impren
imprevedibile
premium
chiunque
chiusura
chiedervi
international
continuera
##gnoraioni
pensateci
restitu
cenato
cancell
cancellazione
utilizzati
break
venticinque
esigente
esignoraioni
ovale
##bella
comode
corriere
diametro
tradizione
addica
lavati
lavate
lavagna
lavatrici
jackson
pronte
elettrica
raggiunger
incredibili
sterlina
consegnati
consegnate
cominci
cominciato
acquista
finanziari
desk
cartonato
malati
professionista
valigetta
allentato
##ghera
ascoltami
ascoltando
prepararsi
solitamente
risponde
inviata
##guardia
alimenti
alimentare
frequente
periodi
pubblicitari
play
disacc
spieghero
riscald
esauri
collane
suggerisce
401
percorsi
improbabile
investitori
guadagni
stupidi
florida
licenza
specifiche
minima
polpette
sbu
richiami
geloso
peggiorare
microso
schema
wangfu
causando
ordinarlo
ordinaria
domestiche
fotografo
wifi
processi
vuota
spendi
rapida
sostitui
ingegneri
jenkins
jennifer
romper
rompe
starnuti
ricontr
gustoso
fermarsi
waffles
gratuite
meridi
lavorative
portafogli
intervistato
assumiamo
emozionato
riatta
digitare
previsione
previdenza
moderno
moderni
chimici
rinnova
pantaloncini
katie
scoprirai
videoregistra
estin
estivo
estivi
praticare
impiega
archiviare
storico
storiche
tappeti
accompagna
young
larghi
popcorn
mandar
mandarlo
disturbo
concentrarsi
acquistato
creativita
affaccia
coinvolto
iniziera
impegnata
olimpiade
speranza
scegliendo
casuale
casualmente
cravatte
stampare
avanguardia
south
accetteremo
foods
profondita
chilometro
installato
frittelle
flessioni
flessibili
adora
denom
dennis
emery
globu
dividere
coreano
cassetto
cassette
entusiasmo
dipinto
berro
elencare
detergente
forniamo
televisivi
televisiva
incontriamoci
idraulica
wild
seleziona
battuta
richiamarmi
morira
inau
chanel
collegata
danneggiati
competitivi
assaggiare
crocc
fallire
falliti
supple
suppongo
andarmene
accendi
pillola
distributo
distribuire
professori
allergica
trasforma
fisicamente
socializzare
droga
variano
spuntini
rilevanti
scolastiche
impostato
chiacchierare
estendere
alberghi
tranquillamente
disturbarla
accadem
accademici
cross
otterranno
stendere
stenografia
inventario
cifra
lunghezza
rispettare
musicale
richiedera
irving
piangere
foresta
contattarlo
opuscoli
conclusione
addestrato
ampia
gemelli
usciamo
potrai
patrimonio
cheng
trascorso
sollevato
azionisti
arrabbiata
percorrere
gomme
##tching
##ween
cappelli
automobili
distratto
autentico
sopravvivere
racchette
antipasti
industries
psicolo
##umatici
prepare
prepari
##ologici
##ologiche
tipico
avvenuto
avventura
prendessi
riccioli
carrello
stephen
espandere
affidabile
racconti
rendimento
corrispondono
trasportare
escursion
difettosi
cerebrale
istitu
nominare
##ensori
decollo
magnifico
rigido
scalare
scaldare
fornello
fornelli
arbitrato
bangkok
acquisito
spazzolino
joanna
significhi
significano
desiderate
agire
egitto
ipod
oscuro
disegnare
maturi
cattolici
rasoio
apprezzamento
tapis
tailandese
collaterali
fantasmi
tovagli
foxtrot
barbara
sintomi
reclutamento
conflitti
riparazioni
ebbene
emorragia
vomitato
zii
vetrina
colonia
generazioni
rotondo
sorridere
consumatori
dettagliate
licenzi
microonde
inquinanti
rimborsero
osservato
orgoglioso
approssimativamente
deriva
jessica
lattine
conviene
volontariato
allettante
affettu
affollata
aspirina
puntuali
musulmani
svizzera
separatamente
whoa
cappuccino
emostatico
afric
bonifico
etv
pneumatici
ryan
delegato
conchiglia
davveromente
oroscopo
telecamere
robot
agrodolce
fratellastro
karaoke
zodiacale
squalificato
impermeabile
contemporanea
smalto
yellowstone
autista
britann
ciclismo
ebay
itiner
jesus
oxford
obsole
zenzero
insopporta
hockey
comodino
halloween
catherine
network
pazzesco
megapixel
abbonamenti
building
mountain
nausea
serbatoio
interfaccia
calamari
cutanea
barcellona
weekend
microsoft
wangfujing
videoregistratore
globuli
insopportabile
350
44
57
64
700
86
asi
amen
aman
attore
arie
aquil
bran
bici
bron
brezza
bomb
cpa
cing
carie
darci
ella
etica
flo
fior
fing
fian
gene
gpa
gossi
getto
his
home
hand
hangzhou
ic
iper
iba
jing
josh
just
les
lordo
messi
ow
om
oce
over
ossa
oop
ostello
porre
plan
ron
ros
ran
sbi
seri
stero
sarto
slam
ty
toll
tali
toss
that
tyl
tsing
ue
uta
vul
vong
word
wars
xi
yes
##idi
##iera
##ber
##bra
##bera
##bali
##betto
##bur
##bana
##bet
##bert
##eth
##ezionare
##ring
##ronto
##tney
##uf
##uer
##uri
##uli
##uito
##umento
##ugia
##ografiche
##dori
##guo
##gero
##gue
##gine
##gali
##geremo
##gosta
##ndola
##vy
##vio
##voro
##vale
##venza
##cene
##ceri
##cali
##cing
##carmi
##lino
##lando
##lini
##ser
##som
##sington
##my
##mmelo
##pare
##pal
##pero
##phi
##portu
##pingere
##zane
##fon
##84
##48
##69
##ya
##yon
##yman
##yuan
##20
##23
##ree
##toffie
##enanmen
##tao
##tava
##tagon
##iante
##razzi
dimin
dimetti
##tigini
##teso
##tegno
##tezza
##olia
##olito
##oline
##ordi
quar
##anni
##anzia
##lling
inta
insp
inquil
##row
perda
pericolo
perderai
perdon
lass
lavi
lamente
lamenti
laghi
##inan
##inal
##iniamo
##inche
##inci
##inito
##inari
dean
detra
detec
degusta
##als
##alor
##icle
##icole
##iccia
##erente
sem
setta
segni
sediamo
secchi
##uotere
mace
marato
magra
madri
maddie
maestro
##ccar
##ccare
##ccarsi
consen
##riere
##rittura
any
##gla
##sie
##sis
##sivi
##sius
##sibili
##silia
fatica
fattu
fashi
##dite
dail
dammelo
alas
##llati
##llate
pregare
prevista
have
haggis
hainan
leo
leone
##ssano
cassi
calli
casca
cavolo
cable
##cheremo
##ttivo
posse
##civer
##ciglia
sur
susie
##ishi
dou
cip
beneficio
##ggono
##traggio
proven
proatti
provenire
protagon
povera
tempio
teiera
gratta
graff
grafici
##cultura
##samo
##data
##datura
patto
paff
pagno
patria
pause
##ologica
melan
mettia
##tus
##ttati
##ttaglia
##ttando
##ttarti
novi
nova
##ffin
##vigg
##vivere
##virus
tirare
tirato
tibet
tienanmen
parchi
partendo
sabb
satelli
sacri
quanta
##lleggiare
spu
spessa
spring
##spen
avver
avvia
avvolto
vacc
vaglia
vacci
vadano
##bitato
compen
compone
componi
composto
composizione
socio
##cata
##catura
delicato
beef
ritro
rime
ripi
ripen
rimetter
rivivere
##terlo
vedendo
veicoli
vetrata
buco
bibita
bibite
biologiche
essenzia
essersi
##orrere
##treal
scesi
sciato
##lati
##laggio
vir
viri
vigi
vigore
##verato
votare
votero
volerci
volonta
liqui
lavarti
lavarmi
rami
rasa
raddo
rating
mania
manche
manter
mango
mandati
##rancatura
basi
battaglia
creda
crediamo
credevo
crederai
##gnola
chio
chron
chong
prenderai
##inelli
##meli
##gaciglia
venissi
venduta
movimento
mouse
importiamo
##sch
##scono
##neyl
fido
fiero
regione
retrib
regioni
art
arro
arden
arric
ricom
nostal
trassi
tracy
allungare
apposi
apparire
grandine
iodio
store
stoffa
nuotata
tao
tacco
tappa
tacchino
disperato
capiamo
capric
capisca
pru
gua
##derli
##essori
quinto
carni
carbu
##usato
ristru
riserv
ristretta
signorai
chiari
accum
accedi
accord
accatti
accetti
accada
accessori
accusato
##ciale
##pazione
##ggire
##zialmente
sempli
piacermi
diretta
aiuterebbe
proporre
guarni
##cha
##chino
##china
##chiato
trovera
trovarci
troveremo
trovarla
##ratori
##gionale
##girl
pear
pepe
peking
divertendo
##ssette
orrore
affinche
affrancatura
giun
portate
portano
portando
portarci
aziendali
##orifici
usero
usarli
autori
autografo
entre
##ssie
specchi
infarto
infanzia
colti
salvo
nazion
navata
cogliere
strana
finta
viste
visuali
##pers
stup
iniezione
esca
pugno
##ventu
fuso
fumi
furti
fusibile
intercultura
facce
assen
assor
pipi
pignolo
calp
calciatore
cantiamo
canyon
toronto
cambiamo
chiedono
menzionare
tofu
toef
territo
verremo
verbale
vertigini
aspettarmi
aspettarti
avervi
dalian
##essioni
##estazione
pensieri
telecom
abbassa
##bag
piccanti
bandi
banana
restiamo
filiali
partira
##chidi
chiamava
cuffie
cucciolo
impazz
officina
indicato
noiose
##tterei
onde
##cking
migliorato
biglietteria
mattine
entrati
possibili
provalo
pensassi
roy
rocci
rottura
route
roton
roast
rovin
vestirsi
eroe
potevi
potevano
considere
consideri
gabbia
galleggiare
edd
edward
mont
monte
monumento
montreal
accordoe
tornando
torneranno
controlliamo
controllera
controllando
scemo
disin
disord
disneyl
pompel
102
servito
servita
incenti
leggono
leggeri
mals
stivali
stipul
assicurare
invinci
contatti
contatteremo
guido
decimo
decidi
##guato
assicurazioni
assicurative
assicurarvi
riuscita
##ttuto
##meria
cinquecento
mattinata
lasciata
lasciarti
bende
comunicazioni
audizione
##thday
##utate
brav
##estono
dicevano
##angshan
trasmettere
preoccupano
preoccuparmi
preoccuparci
fermi
fermano
fertili
box
bocc
boat
supervisione
##quie
funerale
colletto
##giata
affittero
elezione
agru
diventerai
##cciati
andavamo
medici
mostrarlo
mostrarti
barista
barriera
shen
shan
insegnero
insegnando
##colante
cucino
cucinera
fortune
ottimista
preferire
scrivero
attrae
condizionato
incontrarsi
fontane
strette
scarico
scarpa
scartoffie
eccessi
##ficante
good
esercitare
racconta
frain
frase
principiante
125
ops
option
sbaglio
prendersi
##issioni
ruth
rughe
russia
rubata
preparo
portiamo
grandioso
nuvole
nuziale
nucle
inviti
inviera
inviteremo
passami
necessarie
##isticato
rimani
artificio
opposta
first
frittata
piovigg
vincolante
concerti
accettano
tagliati
tagliate
insolito
antidol
antivirus
visite
abituali
abituarti
abituarmi
comprarmi
programmazione
trovate
trovassi
doloroso
compresa
comprese
comprerei
scelgono
bastardo
chiamarli
indossarli
##cchezze
brutte
bruciare
island
confezione
confronto
puliro
valgono
stipendi
adam
adatte
pianific
parlamento
amburgo
olandese
guardarmi
guardarli
produce
societ
socievole
spedizioni
rendono
rendermi
renderti
rilascia
permetto
divertirai
johnny
ritirarlo
sentirete
terminal
##grafici
muffin
sciol
maternita
panchina
discussi
sostegno
riparato
ripagare
ripagarti
durato
well
beviamo
cristo
lavorate
##volta
##volmente
fornitura
forniremo
attualita
2001
2000
risoluzione
morso
camminando
##ministra
trip
presentata
presentarti
eccitazione
eccitanti
controver
compilarlo
chiudi
chiedergli
delibera
vorrai
album
continuerei
pubblicizzato
sorelle
restituito
sorpresi
broker
broad
blocco
riusciva
riusciremo
centri
north
paparazzi
mantenuto
mantengo
mantenersi
utilizzando
aggiunta
aggiungero
##mettono
impegn
esibi
esistono
continuava
comodi
riflette
rifugia
addice
aeroportu
singole
dirgli
prestazione
prestarti
limiti
scommettere
scompar
scomodo
cartelloni
aiutami
oltremare
visitando
registratore
cioccolata
darmelo
migliaio
competere
approvato
approvata
approfondi
energ
straordinario
greca
valido
allenare
pulisce
anticipa
praticamente
misteri
raffor
preparate
europei
scontati
mangiarli
rispondendo
arrabbi
arrabbiare
geografia
iscriverti
parale
complicate
ricevi
ricette
ammessi
bancari
olive
##kers
disagi
disastri
riscal
riscuotere
raffreddi
collins
sonda
sedervi
seguono
suggerisci
ispettore
alzarti
esterni
3000
mettetevi
mettetelo
arreso
arretrato
stupida
classici
aumentati
aumentano
davies
sciocchezze
specifica
permetterti
lancia
lanciato
minimi
sbar
conversazioni
soffitto
bistecche
australiani
gelosa
gelsom
valeva
innaff
viveva
esportatori
studentesco
olimpici
umana
stevens
asciugo
asciugare
brevetti
davidson
muove
muovi
muovere
muoverti
incas
rappresentanti
brividi
occasioni
notting
sostituto
tedesca
avvio
comportato
vogliano
gustosi
giocattolo
raccomandata
meraviglia
pareggio
trucchi
water
insegui
ospitare
turistici
ringrazi
indovinelli
meritano
multato
multivita
segnali
segnalato
dolcetto
emotivo
grigio
occupazione
riavere
##lyn
digitali
digital
maglioni
promettente
ricordero
applicazione
naviga
rubrica
oggetto
protezione
proteine
arricchi
popolarita
destino
estive
separare
separato
separate
pastore
storici
indossava
adattarti
adattarsi
giovanile
quotidiane
idol
idone
sangu
sanders
your
popolazione
mandarli
fidan
presenti
presento
litiga
risorsa
pienamente
palace
palazzi
centrali
dragon
lenzu
renderebbe
##oscri
promuovere
pasticc
reliquie
coperte
copertura
sceglierne
sceglierli
progettazione
ottavo
polline
difetti
dichiarazione
congressi
stampato
tienilo
mancasse
pagherai
attrezzato
familiari
organizzano
normal
chilometraggio
gold
piegaciglia
leggete
frequentare
culturale
360
320
adorabile
crudo
crude
cruciver
cruciale
coreani
raccolti
fragola
lucidi
morbida
264
salutato
sopportarlo
sbrigarti
sbrighiamo
berlino
elenco
incoraggiato
ventoso
televisivo
fotografico
musei
pericolosa
selezionato
selezionare
maschi
controllate
pulsanti
ringraziarvi
stampati
channel
firmarlo
firmate
danneggiato
danneggiata
competitivo
vegetariani
asiatico
asiatici
balsamo
concetto
anziane
fallimento
medium
distruggere
negoziazione
conservato
desiderare
fuochi
combinata
nevica
ripeterlo
allergie
apparecchi
toglierlo
rovinato
ambizioso
astr
sfogliare
variare
##donald
##lievo
memorizzato
spuntino
ammiro
resistere
trasferisce
trasferisci
nipoti
addormentarmi
abc
croll
crosta
immu
kenmore
kensington
otterrai
sostan
precipi
sacchetti
avanzamento
sovraccar
imperatore
estranei
circoscri
airbag
brillanti
riprendendo
riprendersi
stereoti
azzur
eliminare
eliminato
fluente
irrita
alcolici
cassaforte
notebook
peperonc
consiglieresti
joey
sfortunati
aragosta
arachidi
ampiamente
indagare
introdotto
combattere
ribaltato
imparero
solleva
petroli
azionarie
elettronici
archiviano
divorziando
sciarpe
animazione
meccanismo
biografia
biografie
ingrassare
procedure
deludente
fissando
informarmi
scientifico
integrali
486
adegua
adeguato
celsius
svolta
lamentarmi
lamentarsi
alzati
statue
status
fifone
accelerare
stephanie
espansione
incartarlo
oriental
difettoso
congestionato
cattedrali
bronto
cereali
istituto
mcdonald
slogan
tiananmen
tianjin
magnifica
volantini
arbitro
atlante
costantemente
curioso
curiosita
assemblato
spiegazione
costruiti
riconosciuto
videocamere
aggiuntivi
incoraggiante
rinfrescato
egizia
galassie
##gurazione
##canica
##hoo
sperimentato
scaldate
basata
basati
batteri
trattenuto
copro
service
assicurero
spaventoso
contrattazione
conflitto
guadagnano
religioso
inaspettato
consapevolezza
immersione
560
hunan
hunter
myra
oserei
oaks
##missione
ansioso
ansiosi
favor
splendi
splende
sotterraneo
andrew
pellicola
barrette
campeggio
sottolineare
sottolineato
cinematografiche
rapinatore
rovesci
rovesciato
ambientali
nascondere
influenzano
spicciolo
spiccioli
keba
monopetto
distinti
sepolti
miliardi
commovente
esservi
limonata
bagnata
traduttore
riscattare
esagerando
governante
fragile
campanello
sottovalutate
immagazzina
attraversando
rilasciato
ingorgo
federale
dannosi
pellegrini
certificati
accogliente
ghiacciata
gonfio
stronzate
riprogrammare
william
marittima
riconoscimento
panoramica
altoparlante
biasi
iris
two
wendy
##economia
diciassette
indeed
massima
faticoso
prevede
premete
dogana
grammatic
memorabile
piastrelle
avvertimento
sofisticato
soggetti
scremato
forchette
nathaniel
gassate
disgusto
lontani
sindacato
sbattetele
vincitore
lucertole
ambasciata
scivolati
riflettere
invecchiando
ispirazione
jumping
riconfermare
turbolenza
svantaggi
christy
irrevocabile
cestino
folle
herald
jordan
kfc
ostacoli
ruota
riord
yahoo
dissol
dizionario
masticare
miracolo
caviglia
pattinaggio
timbrare
saudita
birthday
maneggiare
risarcimento
addirittura
farfalle
stravagante
esentasse
pugnalato
consistenza
pompiere
secondaria
braciole
trasloco
specializzero
sottocomsignoraione
dioetevi
sistemarmi
caramelle
scimmie
ingenuo
smettesse
cancellero
sbucciare
inaugurazione
accademico
escursionismo
tovaglioli
contemporaneamente
itinerario
asilo
amenita
amanda
ariete
aquilone
brandy
gossip
leslie
omc
oops
steroidi
toller
tyler
tsingtao
utah
vulcanica
##bury
lassu
lamentele
settanta
maratona
consenso
fatturato
fashion
daily
alaska
protagonista
pagnotta
melanzane
mettiamola
novizio
chronicle
nostalgia
trassignoraione
appositamente
carburante
signoraione
nazionalita
toefl
disneyland
pompelmo
invincibile
fertilizz
antidolorifici
society
deliberatamente
broadway
rifugiati
aeroportuale
gelsomino
nottingham
cruciverba
peperoncino
01
2pm
419
58
550
67
78
87
890
ak
ace
abile
astra
agge
atrio
bos
bolo
bino
brie
bric
cb
cn
cle
cesto
crono
dos
dun
darlo
dong
dana
darli
ey
emp
eco
ecu
eva
epi
esita
ecolo
evita
effici
etn
evan
emessa
forre
fico
ficc
fiato
fana
gl
gang
gary
hua
hans
ich
idio
irra
ivan
jere
jun
jose
ku
kg
kyo
kick
lt
ll
lente
leno
lester
lyman
ms
mere
mun
mesti
mur
nt
nere
nomin
oma
obbe
ombra
otturazione
polo
pini
panto
ral
rura
sno
sbo
sven
santo
song
squisiti
sms
tendo
tessi
tosta
trian
ura
ugua
ves
vom
xu
yale
zol
zie
##ili
##iose
##ban
##blo
##ee
##ele
##eli
##epi
##ricio
##rciare
##rdici
##rricol
##ara
##adia
##amer
##ts
##tiate
##umi
##ugli
##uran
##uga
##utato
##ugh
##odi
##oven
##ograf
##dari
##darlo
##desse
##dwest
##dinaggio
##gri
##gel
##nes
##nal
##nero
##nda
##nico
##vre
##ves
##vola
##ct
##cre
##cante
##calo
##ceremo
##carla
##cendio
##lio
##loro
##lari
##lano
##losi
##latore
##landese
##hen
##sene
##sina
##sarci
##ska
##mia
##misti
##psi
##penti
##pla
##poni
##posi
##porti
##punta
##pugli
##fono
##fone
##fole
##ful
##fatti
##fricio
##81
##44
##40
##64
##ks
##kista
##kka
##kking
##ys
##ying
##yth
##31
##35
##33
##jude
##ren
##reremo
##tocchi
##toria
##tory
##onenti
##onne
##onario
##ontana
##oneranno
##erg
##erosi
##ermelo
##enzie
##entr
##tan
##tage
##tarie
##tally
##iao
##iadi
##iario
##iamma
##iando
##iattoli
##rad
##razioni
##ratura
dista
diure
divis
dimesso
diviso
dimetto
##tibile
##ticare
##tivare
##ostro
##ostare
##teor
##tempo
##ory
##orle
##orbi
##ortera
##ornia
##anzi
##anna
##anga
##llini
into
ines
intri
ingo
indu
inchi
introverso
inonda
##rotta
##roverato
perno
perdo
persi
perdente
perderlo
pericoli
las
lam
lama
lasa
lamb
laghe
ladro
ladri
##ariato
##inga
##inarlo
six
sicci
detro
deca
defici
deut
dedicare
decorare
##noico
##noamer
##alth
##icoso
##icologia
##omo
##ompa
##sodio
##erenti
semi
seller
sedici
severn
##morata
##zima
##zide
##ziente
mao
mah
matura
maesta
matt
magia
maur
matera
macin
macro
##ccando
##ccoli
conqu
contiamo
contenti
contarci
##ttordici
antin
angio
aneste
cosmo
cosme
miu
miti
mirare
midwest
hop
##lee
##letti
##sivo
##sitter
fasi
fauna
commozione
comandi
commissione
##dienza
##dipen
##dity
day
datato
darai
daranno
dadini
alpi
alfi
##iute
##iule
##mate
##matiche
##mentale
##llage
tuffo
prete
prema
preca
prese
preten
prepar
preziose
hamm
habita
leve
levi
##sson
##ssic
stara
stampo
starai
stabilita
stagioni
caos
caten
cast
cavol
caddie
cabine
neo
##iamoci
##chel
molesti
##ttiere
##ttili
postare
postura
##citato
sum
suolo
sudare
##ist
##mpur
down
##ceuti
cimi
##ggera
##ggini
##ggeremo
##ggistica
##lix
##libato
##life
##trare
promo
provo
proie
podio
poesia
##core
telo
teme
teorie
##niferi
grammo
##ppato
##ppola
##curricol
##sacchio
##dao
padi
pack
patrio
pakista
##ologie
mein
metterai
meteor
##ttano
##ttarne
nodi
##vite
##ville
##devole
timer
tifa
timbra
tiepi
parru
quand
quanjude
##lletto
spo
spin
spesi
spessi
##mbiule
penti
pence
penne
avena
avuti
avvere
avvol
avvenire
valle
##bik
compiuto
componenti
soia
sogli
sognare
##cas
##cate
##cake
delica
delmar
##derei
##gliera
bea
beeth
abbra
abbonato
riten
riven
righe
rimor
rivederci
rimar
rimettere
rigore
ritocchi
##terio
##vazione
##vagliato
miope
vela
vetri
vegas
##sette
bull
bugia
buttare
budd
bulloni
##stin
##stine
bike
bionda
biologico
##nate
esserne
##erire
scan
scalo
##lapa
violino
village
##onimo
##verli
vota
voci
orale
volere
volessi
volati
lire
liqu
lilly
limone
##itore
dovranno
dovesse
laviamo
ram
ragni
razza
ragi
rachel
##zzarlo
giornate
manica
baci
batte
bacon
bacio
bagnarmi
crem
creero
crediate
chang
chow
cercheremo
prendine
##arite
##inazioni
##ineken
forum
formato
##metri
venda
motivare
##icipio
impar
imple
##scal
##scino
davveroistico
fire
fida
fiera
fidati
figura
sicure
redi
reato
reddi
revol
rebe
requisi
revisione
recitato
armonia
ricky
ricrea
##triti
##trioli
tragi
tradito
tracol
trascri
trapunta
##tensina
##stoviglie
alli
allontana
soldo
soldato
soliti
soldati
sollievo
##onazione
appo
appicc
appendere
grant
temporaneo
stoviglie
chissa
tata
tael
tampa
tasche
takea
tabella
##gliaio
##tric
##triche
nelson
##stamin
##icopa
capanno
capiti
prol
pruno
##derne
##essato
cartu
carla
cardia
risu
risiamo
chiarire
accu
accento
accostare
advis
adsignorai
adverti
administra
##ciando
amerai
ammetter
settima
possiate
settimanali
##page
##cchiare
##inge
direttori
##tarle
##tarne
##taruga
aiuteremo
dispiaccia
##umere
##chs
##cher
##chiare
##chang
##chure
##cheng
trecento
trekking
##gionamento
petti
peop
pepsi
pelapa
allegati
alleviare
sentita
divertono
orso
orsacchio
affondare
portar
portati
portalo
portava
##dute
gioia
gioventu
sapra
saprete
martello
marsha
##quariato
usiate
autobio
enti
enter
enzima
spegne
spelling
farmelo
scusato
infli
infran
infetta
infil
infestata
inflazione
infiamma
colto
colester
saluti
salvato
saldamente
salvata
##terei
quattordici
pagando
cod
cow
cocco
cour
coke
cooke
##esima
corse
corian
cornice
strato
finiamo
##catori
##person
stufa
stufi
stunt
seriale
serpenti
inibito
##ntemente
pub
##board
interior
interme
interne
interur
interperson
pensino
buonasera
faccenda
assenza
viaggiamo
pitt
pittura
calm
calcol
frega
canne
canadia
tortu
torcia
tornello
cambiale
ultra
lascerai
mentalmente
mensili
toglie
tocchi
toccato
totally
numerosi
veronica
versare
unirvi
##luomo
##antic
aspettami
aspettava
##ccupato
annoi
averle
averli
##get
##gelo
camino
esportiamo
esplosi
importati
importava
##gname
esamin
esaminare
esamina
##orton
pensionabile
abbattere
abbassarlo
registi
##base
picchi
lunare
banker
##zionalmente
##ttenti
##pensione
macchia
macchinari
##gionevoli
cuccetta
indica
indicare
noiosa
noiosi
onu
ondu
oncolo
##cks
prenota
prenotata
##zetto
##zellette
migliorando
stanley
entrassi
studiano
diet
possiede
provve
provali
roccia
round
rispetti
vestirmi
vestirti
vicky
qualificato
malede
consigliamo
contorno
qualcuna
gallone
##tteranno
##quattro
torniamo
inconsis
compleanni
conosciuta
conosciuti
controlleremo
controllarli
tardo
targa
tartaruga
target
scegliamo
disdire
arriverete
109
106
101
103
servite
servirti
servirci
servirvi
gib
gigli
girato
gigante
incarti
legga
maltempo
stilista
invali
investono
##cchiere
contattero
contattato
ricevuti
acre
acque
acroba
dure
dubitato
##diano
spazi
spagnola
pesa
guidiamo
decidete
claire
ceo
ceti
celibato
cetrioli
##ficata
informativi
iniziali
assicurato
assicurativo
##ggiamenti
307
lettori
lasciando
guardavano
intenzioni
capitoli
orecchio
benson
scatti
scasso
scattato
scattata
scappata
##pril
brasilia
scritta
scriva
scritte
scrittrice
profumi
ferri
feriali
bozza
bocche
london
superman
superiori
supervisi
supergirl
tenuti
tenerci
tengono
tengano
tentarmi
clive
##peo
fune
dimentico
dimenticalo
dipendono
pubblicare
##siaca
probabilita
poterti
potervi
affittato
elementi
elementari
elettori
occupando
occupano
occuperemo
occuparsi
agric
agenzie
compratore
andavi
mostrartelo
barcla
barzellette
sharon
##urnal
sinte
sincero
##pren
##ossura
##colari
##ianne
journal
indispen
cucine
cucinato
cucinando
attrazione
attivi
incontrate
incontrano
doris
dorme
dormono
fondato
stretching
scarsa
scarica
scarponi
eccomi
starebbe
neill
esercitarmi
uscira
principianti
1234
attenta
ascoltera
optare
poligono
polieti
aprira
aprite
aprirlo
acquamar
heineken
rullino
rubik
##geron
##geria
specializzata
seno
senta
porzione
porter
bancarotta
trattali
trattamenti
sporche
sporca
sportiva
recessione
recinto
invieremo
invitata
riunirsi
passaporti
scopp
scottarti
scoiattoli
scogliera
rimango
rimangono
cambiata
cambiati
campbe
vacanti
colorato
colorati
trasferite
trasferirvi
##liari
annuire
frizione
vinca
vintage
##estiamo
concorso
concession
vedervi
trans
transi
insin
insuran
antiche
antistamin
antiquariato
compatibile
##ongshan
pranzi
visitarla
preoccupazioni
abitua
abituarsi
abituati
frullato
comprarti
comprargli
programmatore
programmatori
sposta
sposarti
spostarmi
spostando
spostarlo
trovava
##gioco
jacob
jamie
compressa
comprerai
##four
##fobia
prendimi
chiamerei
scriverebbe
##viazione
##anaso
lumpur
lucas
notifica
brutti
bruciato
confezionate
scherzetto
valanga
adattare
donare
ottocento
dioersi
##andosi
sistemo
sistemato
parlava
parlamene
esempi
eseguire
olanda
angolazione
bagagliaio
guardano
guardarti
##gatore
contengono
produciamo
renmin
postino
immagina
immaginato
leggerei
permettero
permettono
divertirmi
divertirete
sceglierei
finiro
gentilmente
gentiluomo
sorso
sentirei
gestito
gestisco
##dendi
##denziale
##grafa
huangshan
sciolto
exam
tombe
##redire
includere
ripare
generoso
generatori
discutiamo
discutia
sospetti
sospensione
ingiusto
riparatore
ripaghero
parcheggiate
##gnatore
crisi
crista
critico
critici
critiche
criteri
criticare
criterio
sfa
lavorava
febbra
felix
##messe
fammelo
attuali
2008
2003
smetta
smemorata
risolviamo
arrivasse
mordere
##minster
rinun
presenta
presenze
presentarmi
eccita
eccitati
mescolare
sports
1963
dettagliato
premuta
metal
compilarla
chiusa
risulta
funzionamento
1825
romani
romana
romantica
suggerire
metterle
metterla
metterne
laureata
uovo
brook
brows
brooke
broccoli
brochure
nervosa
cenando
norma
finanziare
cancellata
segreteria
utilizzo
utilizzate
impegni
ovvi
##belle
##bello
vedesse
corporatura
continuavo
continuamente
rifini
diana
diaposi
capita
capira
capite
capitato
##essionato
140
singoli
##out
ditegli
dirige
dirigenti
lavastoviglie
prestarmi
limito
messaggistica
160
testar
tecnologie
trasporti
aiutata
aiutavo
aiutatemi
imballare
imbavagliato
database
raggiunge
ricerche
apprezzi
funzionano
consegnata
registrarti
finanziate
finanziamenti
urb
urla
urine
garanzie
montaggio
panettiere
competono
approccio
approfi
approvvi
approfon
cartolina
colpire
colpisce
colpisci
salata
salame
malate
depositato
depositando
grembiule
causate
passeggiate
grossa
misurare
preparatevi
prepararci
giornalieri
europeo
quotazione
novecento
soggiornato
scontra
sconosc
cercapers
rispondi
rispondera
dentifricio
gelata
geografiche
alimentazione
paranoico
corsie
frequentemente
ammorbi
centocin
diventi
divento
diventino
plaza
platino
disabili
disatten
disastro
spieg
spiegato
candidatura
raffred
210
cantano
cantava
cantando
cantarla
sony
sonniferi
sedersi
seguendo
facevi
facevamo
casal
casco
argen
rilassarci
ispezionare
esteri
esterne
investito
arresta
peters
stupide
aumentera
flusso
there
progredire
member
compira
sciogliere
lanci
langua
lanterna
polari
polmoni
sbornia
converte
conversione
sofferto
portobello
##ador
giardinaggio
esportatore
curve
fondazioni
taiwanesi
studentessa
ordinero
amavo
amabile
amasse
umanita
mercante
gamba
istruttore
muovero
muovermi
three
incazzare
costring
doverlo
spille
spilli
riduzione
venirmi
venivano
operativi
rappresentare
rappresentano
sfilata
britney
evidente
eviden
nilo
nizza
nient
nigel
nigeria
vuote
patatina
spende
spendendo
conoscevo
conosceva
camerieri
extracurricol
sostituito
starbu
giocavo
fermarti
fabbricazione
225
sanitario
truffa
wall
gratificante
ospita
ospitante
908
segnare
segnal
maggioranza
assumerti
seguitemi
cuoca
cuocere
emotiva
riacc
riavv
riaverlo
##zhu
digitato
moderato
ricordarmi
fredde
regolari
pioveva
rinnovato
rinnovarli
rumorose
kauf
toner
tonno
tonne
riprendi
travel
enormi
scambia
punteggi
culture
destinata
pratici
talenti
debbie
connessioni
casella
manufatti
impiegati
quotidiani
divorzi
accompagnarti
accompagnatore
meravigliose
bolletti
idroc
vantaggio
##yling
largo
large
larry
popolo
mandarti
mandarmi
fidano
fidarti
concentrarti
soddisfacenti
licenziamento
presenza
prestero
vivro
vivian
litigio
affamato
inizieremo
inizieranno
impegnativa
enormemente
aggiornata
lenta
##endolo
scende
scendiamo
scendete
scendera
respira
respirazione
scegliero
riposarti
origine
progettare
ottava
##field
difesa
difensori
dichiarato
legis
padrino
avanzi
attrezzi
comprendere
comprensibile
organizzero
organizzarvi
aggiustato
centimetro
golden
outlet
instabile
insegnami
insegnamenti
ciascuna
gattino
temperature
325
adottato
denunciare
densamente
emergente
elaborato
harri
tessere
tessuto
tessuti
zhongshan
dividiamo
divisione
dividendi
sedie
sedili
avvocati
descrizioni
descriverlo
descrivermi
debolezza
268
267
261
260
nanchang
whole
disoccupato
accadere
entusiasti
infermeria
cambiero
cambierai
francobollo
esigenti
spiritoso
bergeron
equipa
equivale
elencati
fango
pinta
pinze
uccidere
uccidendo
uccidera
discar
discorsi
incoraggiare
determina
supere
supero
dubbi
svegliarmi
restituirli
confermata
fondamentali
gonfia
latinoamer
tirasse
trentacinque
records
premurosa
rimborsera
rimborsare
richiamarti
richiameremo
esclusa
sprecare
rivela
rivedremo
richiamo
farmaceuti
collegamento
giornalisti
firmarne
firmati
inseriamo
centinaio
celebriamo
celebrazione
attacchi
attaccato
balance
umilia
decorata
decorazione
concedermi
convinc
suppone
supporto
memorial
andarcene
andarsene
furg
chiedeva
miglioramenti
distruzione
distribui
fotocopie
negoziabile
braccialetto
nutriente
nutrienti
nutritivo
piovendo
conservatore
desiderato
appropria
287
false
mandami
bassifondi
apparecchio
apparentemente
strategica
rovinare
rilassata
sfortunato
procuro
mettiamoci
rilevante
burger
atmosfer
successiva
trasferisco
trasferiscono
sostenuto
disturbare
ubriachi
diplomero
diplomarti
abra
aborto
otterra
ricamo
stenograf
##aii
##678
inventato
inventarti
matite
precisi
adulta
estratto
estrarre
toccarla
rispettati
rispettabile
stimolanti
musical
musicali
musicista
imbrogliare
riprogetta
obbliga
eliza
fluttu
irlandese
ossessionato
sessuali
sandy
variabili
##goria
suonano
suoneria
notevolmente
##ranee
formiche
carlsb
contattarmi
contattarli
raccomandarmi
addestramento
influenzato
avvicinano
avvicinarti
avvicinarsi
arazzo
ampliare
residenziale
svuo
dimissioni
indagine
introduzione
decollato
decollare
beneficiario
spingi
christine
tramonto
trascorrere
esprimer
incontrero
incontrerai
tranquillita
arrabbiati
superata
animati
meccanica
gomma
ingrassato
ingrassano
contribu
contributo
contribuire
cacciavite
procedere
pochissimo
abbandoneranno
davveroizzare
fissarlo
adolescente
margarita
scusiamo
punirlo
autentici
autenticare
recensione
sospetta
sospeso
bloccata
hilltop
drammatico
drammatici
aggra
irrespon
psicologia
psicopa
svolgono
innanzi
magre
magari
magrezza
macinato
contegno
alzata
tipici
prendesse
carrefour
acconten
accelerato
adesione
orgoglio
affidabili
rendimenti
corrispondenza
trasportatore
apprezziamo
quotidianamente
ottantasette
congestione
congestionate
brossura
brindato
lentiggini
nominato
strip
uguali
disegno
perderanno
##ichera
conduce
condurre
cashmere
mettano
rigida
temporaneamente
tassista
atlanta
atlantic
interpreta
acquisire
antichita
muscolare
scienziato
riportare
1980
scomparto
aggiuntivo
indipendentemente
procurarti
rinfrescante
minoren
acquirenti
bollire
galateo
##tiazide
##623
innova
innocente
persever
pertinente
maturato
milano
categoria
cattolica
sperimentare
balliamo
realizz
realizzare
tailandesi
prospettive
accordi
afferrare
fantasma
serviamo
estremo
estremi
##ditoriale
spaventosi
longjing
contrattazioni
sintoni
pechinesi
ericsson
paradisiaca
guadagnarsi
religiosi
inaspettata
obbligatorio
associates
clinica
emory
fedele
ostriche
vomitare
westminster
digesti
digerire
intima
intimita
consecu
conseguito
connetter
techne
rivoluzione
vetrine
violento
violenza
barack
barattolo
babysitter
impedire
impedirgli
pelliccia
marinaio
generazionale
regalano
regalarle
impacchettato
indiani
indiretto
sbarazzarmi
sbarazzarsi
campeggiare
aggiornati
lusingato
lusingando
nasconderlo
assomigliano
laboriosa
approssimativa
isabelle
igien
igienica
squillare
squillato
##colate
dickie
dickens
lavorero
commodity
subdoli
abbronzato
priorita
filipp
riscatto
partecipazione
colpiti
pizzeria
candele
candela
affittarlo
fragili
richieda
insolite
insolitamente
bruciarla
immagazzinera
attraversiamo
esecutivo
ingorghi
sfuggire
pellegrinaggio
arrampic
arrampicata
coinvolti
coinvolte
ghiacciate
integrita
schiarisce
sciacquone
ripetitivo
williams
marittimo
automobilistica
riconoscimenti
sdraiarti
allontanarmi
dattilografia
dattilografa
altoparlanti
335
esotici
elastica
eguaglia
eguagliare
editoriali
grotta
monaco
qingdao
disidra
prescrivere
pacifico
avvisati
becky
beckham
scandal
scandalo
reagi
prosegui
proseguire
affrettato
usurato
collirio
coltivati
coltivate
country
interferire
united
ufficiali
ufficialmente
telefonico
infortuni
insistito
collezionisti
eccezionale
scoperti
sfratto
imbarazzo
imbarazzato
replica
rimbalzo
complessiva
convertire
soffiero
accomodante
riassun
manifesti
manifestazione
coinquilino
aggiustarlo
robinson
introduttivo
istantanea
femminile
femminili
selvatica
incorporato
illimitato
illimitate
rifornimento
aroma
bye
cespugli
egoista
julia
randy
vestaglia
watch
##diatore
##cardi
devasta
matricola
mixare
hawaii
leopar
paypal
melbo
louvre
sponsori
pendolare
avambra
rimproverato
riferisce
baciarmi
remun
carrozza
accreditato
pettegole
infelice
infantile
serrature
pigiami
piramide
espressioni
pensionistica
cucchiaio
sparatutto
shuttle
acquazzone
heavy
dipingiamo
friendship
anticipare
domicilio
valutare
ritirarli
ingrandi
imprenditoriale
raggiungermi
desktop
disaccordi
401k
rompersi
starnutire
ricontrollare
meridionali
intervistatori
riattaccato
accompagnati
mandarino
adorabili
denominazione
wildlife
croccante
distributore
chengde
prepareranno
affettuoso
britannica
networking
broncio
fiorista
fianco
gettoni
history
homepage
handica
oceani
sbirciare
inspec
inquilino
detective
cassiere
proattivo
grattaci
sabbiose
satellitare
compensare
rasatura
maniaco
manchester
arricciando
accumul
accattivante
giungla
entrerai
territorio
bandiera
impazzendo
disordine
stipulare
boccone
agrume
shenzhen
condizionatori
eccessivo
frainten
nucleo
discussioni
esibizione
approfondire
anticipata
paralegale
ricevitore
riscaldato
sondaggio
multivitamine
navigazione
arricchire
idoneo
sanguinando
fidanzato
centralizzata
pasticceria
crollando
immuni
precipitazioni
sovraccarico
stereotipi
irritabile
petrolifera
brontolare
favorito
biasimare
grammaticale
disgustoso
riordinare
dissolvenza
tolleranza
fertilizzanti
astratti
boschi
binocolo
brief
ecuador
episodio
esitate
efficienza
ficcanaso
irragionevoli
jeremy
joseph
kuala
kyoto
ltd
lenopril
merenda
municipio
omaggio
pantofole
triang
uguaglia
vomito
##lorotiazide
diuretico
intrigante
inchiostro
laghetto
siccita
detroit
deficit
deutsche
maurice
materasso
antincendio
angiotensina
##dipendenti
alfigo
pretenziosa
prepariamo
habitat
level
catena
cavolf
molestie
cimitero
proiettile
pakistan
timbratura
parrucchiere
avverera
delicatamente
beethoven
buddha
liquori
ragionare
rebecca
requisito
tragitto
tracolla
appiccicoso
takeaway
advisor
adsignoraions
advertising
administration
people
pelapatate
orsacchiotto
autobiografia
colesterolo
salvataggio
course
inibitore
interurbana
interpersonali
canadian
inconsistente
acrobazie
indispensabile
polietilene
acquamarina
campbell
concessionaria
insurance
antistaminici
renminbi
discutiamone
febbraio
brooklyn
browser
diapositive
approvvigionamento
approfondita
cercapersone
language
starbucks
kaufman
riprenditi
bollettino
idroclorotiazide
stenografare
carlsberg
innanzitutto
